{
  "version": "1.0",
  "truncation": null,
  "padding": null,
  "added_tokens": [
    {
      "id": 0,
      "content": "<pad>",
      "single_word": false,
      "lstrip": false,
      "rstrip": false,
      "normalized": false,
      "special": true
    },
    {
      "id": 1,
      "content": "<unk>",
      "single_word": false,
      "lstrip": false,
      "rstrip": false,
      "normalized": false,
      "special": true
    },
    {
      "id": 2,
      "content": "<bos>",
      "single_word": false,
      "lstrip": false,
      "rstrip": false,
      "normalized": false,
      "special": true
    },
    {
      "id": 3,
      "content": "<eos>",
      "single_word": false,
      "lstrip": false,
      "rstrip": false,
      "normalized": false,
      "special": true
    }
  ],
  "normalizer": null,
  "pre_tokenizer": {
    "type": "ByteLevel",
    "add_prefix_space": true,
    "trim_offsets": true,
    "use_regex": true
  },
  "post_processor": null,
  "decoder": null,
  "model": {
    "type": "BPE",
    "dropout": null,
    "unk_token": null,
    "continuing_subword_prefix": null,
    "end_of_word_suffix": null,
    "fuse_unk": false,
    "byte_fallback": false,
    "ignore_merges": false,
    "vocab": {
      "<pad>": 0,
      "<unk>": 1,
      "<bos>": 2,
      "<eos>": 3,
      "!": 4,
      "\"": 5,
      "#": 6,
      "$": 7,
      "%": 8,
      "&": 9,
      "'": 10,
      "(": 11,
      ")": 12,
      "*": 13,
      "+": 14,
      ",": 15,
      "-": 16,
      ".": 17,
      "/": 18,
      "0": 19,
      "1": 20,
      "2": 21,
      "3": 22,
      "4": 23,
      "5": 24,
      "6": 25,
      "7": 26,
      "8": 27,
      "9": 28,
      ":": 29,
      ";": 30,
      "<": 31,
      "=": 32,
      ">": 33,
      "?": 34,
      "@": 35,
      "A": 36,
      "B": 37,
      "C": 38,
      "D": 39,
      "E": 40,
      "F": 41,
      "G": 42,
      "H": 43,
      "I": 44,
      "J": 45,
      "K": 46,
      "L": 47,
      "M": 48,
      "N": 49,
      "O": 50,
      "P": 51,
      "Q": 52,
      "R": 53,
      "S": 54,
      "T": 55,
      "U": 56,
      "V": 57,
      "W": 58,
      "X": 59,
      "Y": 60,
      "Z": 61,
      "[": 62,
      "\\": 63,
      "]": 64,
      "_": 65,
      "`": 66,
      "a": 67,
      "b": 68,
      "c": 69,
      "d": 70,
      "e": 71,
      "f": 72,
      "g": 73,
      "h": 74,
      "i": 75,
      "j": 76,
      "k": 77,
      "l": 78,
      "m": 79,
      "n": 80,
      "o": 81,
      "p": 82,
      "q": 83,
      "r": 84,
      "s": 85,
      "t": 86,
      "u": 87,
      "v": 88,
      "w": 89,
      "x": 90,
      "y": 91,
      "z": 92,
      "{": 93,
      "|": 94,
      "}": 95,
      "~": 96,
      "¡": 97,
      "¢": 98,
      "£": 99,
      "¤": 100,
      "¥": 101,
      "¦": 102,
      "§": 103,
      "¨": 104,
      "©": 105,
      "ª": 106,
      "«": 107,
      "¬": 108,
      "®": 109,
      "¯": 110,
      "°": 111,
      "±": 112,
      "³": 113,
      "´": 114,
      "µ": 115,
      "¶": 116,
      "·": 117,
      "¸": 118,
      "¹": 119,
      "º": 120,
      "»": 121,
      "¼": 122,
      "½": 123,
      "¾": 124,
      "¿": 125,
      "Â": 126,
      "Ã": 127,
      "Ä": 128,
      "Å": 129,
      "É": 130,
      "Ê": 131,
      "Ñ": 132,
      "Ò": 133,
      "á": 134,
      "â": 135,
      "ã": 136,
      "ä": 137,
      "å": 138,
      "æ": 139,
      "ç": 140,
      "è": 141,
      "é": 142,
      "î": 143,
      "ï": 144,
      "ð": 145,
      "ĉ": 146,
      "Ċ": 147,
      "Ġ": 148,
      "Ģ": 149,
      "ģ": 150,
      "Ĥ": 151,
      "ĥ": 152,
      "Ħ": 153,
      "ħ": 154,
      "Ĩ": 155,
      "ĩ": 156,
      "Ī": 157,
      "ī": 158,
      "Ĭ": 159,
      "ĭ": 160,
      "Į": 161,
      "į": 162,
      "İ": 163,
      "ı": 164,
      "Ĳ": 165,
      "ĳ": 166,
      "Ĵ": 167,
      "ĵ": 168,
      "Ķ": 169,
      "ķ": 170,
      "ĸ": 171,
      "ĺ": 172,
      "Ļ": 173,
      "ļ": 174,
      "Ľ": 175,
      "ľ": 176,
      "Ŀ": 177,
      "ŀ": 178,
      "Ł": 179,
      "ł": 180,
      "Ń": 181,
      "Ġt": 182,
      "he": 183,
      "Ġa": 184,
      "Ġs": 185,
      "nd": 186,
      "Ġw": 187,
      "Ġthe": 188,
      "ed": 189,
      "Ġb": 190,
      "Ġto": 191,
      "Ġand": 192,
      "ĠT": 193,
      "Ġh": 194,
      "Ġf": 195,
      "in": 196,
      "Ġwa": 197,
      "re": 198,
      "it": 199,
      "ou": 200,
      "Ġl": 201,
      "Ġd": 202,
      "Ġc": 203,
      "Ġp": 204,
      "ĠThe": 205,
      "ay": 206,
      "Ġm": 207,
      "er": 208,
      "Ġwas": 209,
      "om": 210,
      "Ġhe": 211,
      "is": 212,
      "ar": 213,
      "Ġn": 214,
      "im": 215,
      "on": 216,
      "Ġsa": 217,
      "id": 218,
      "ll": 219,
      "ĠS": 220,
      "Ġha": 221,
      "Ġg": 222,
      "at": 223,
      "ing": 224,
      "ot": 225,
      "en": 226,
      "an": 227,
      "le": 228,
      "or": 229,
      "end": 230,
      "Ġ\"": 231,
      "ir": 232,
      "ĠH": 233,
      "of": 234,
      "am": 235,
      "ĠThey": 236,
      "et": 237,
      "Ġit": 238,
      "Ġth": 239,
      "ig": 240,
      "ĠHe": 241,
      "Ġin": 242,
      "il": 243,
      "Ġpl": 244,
      "ow": 245,
      "ver": 246,
      "ri": 247,
      "ut": 248,
      "Ġbe": 249,
      "Ġu": 250,
      "Ġsaid": 251,
      "Ġplay": 252,
      "ĠO": 253,
      "ith": 254,
      "ĠTim": 255,
      "Ġday": 256,
      "Ġwith": 257,
      "pp": 258,
      "ĠOn": 259,
      "Ġy": 260,
      "oo": 261,
      "ked": 262,
      "Ġr": 263,
      "ĠI": 264,
      "ĠShe": 265,
      "Ġher": 266,
      "ex": 267,
      "ce": 268,
      "ld": 269,
      "Ġhis": 270,
      "Ġst": 271,
      "ke": 272,
      "ĠL": 273,
      "Ġbig": 274,
      "nt": 275,
      "ck": 276,
      "Ġyou": 277,
      "very": 278,
      "st": 279,
      "ve": 280,
      "ĠB": 281,
      "Ġon": 282,
      "un": 283,
      "Ġhapp": 284,
      "riend": 285,
      "Ġfriend": 286,
      "all": 287,
      "ily": 288,
      "ext": 289,
      "ĠM": 290,
      "Ġthey": 291,
      "oft": 292,
      "Ġwe": 293,
      "Ġhad": 294,
      "Ġnot": 295,
      "Ġli": 296,
      "Ġup": 297,
      "her": 298,
      "Ġwant": 299,
      "Ġof": 300,
      "ad": 301,
      "itt": 302,
      "Ġ<": 303,
      "|>": 304,
      "endoft": 305,
      "Ġ<|": 306,
      "endoftext": 307,
      "se": 308,
      "Ġdo": 309,
      "Ġe": 310,
      "Ġhappy": 311,
      "ent": 312,
      "Ġvery": 313,
      "es": 314,
      "Ġthat": 315,
      "Ġsaw": 316,
      "ĠLily": 317,
      "ĠOne": 318,
      "'s": 319,
      "ĠA": 320,
      "ould": 321,
      "Ġmom": 322,
      "Ġfor": 323,
      "Ġsh": 324,
      "ittle": 325,
      "Ġlittle": 326,
      "ĠTom": 327,
      "Ġshe": 328,
      "ch": 329,
      "ime": 330,
      "Ġnam": 331,
      ".\"": 332,
      "Ġtime": 333,
      "Ġk": 334,
      "ound": 335,
      "Ġso": 336,
      "Ġthere": 337,
      "Ġnamed": 338,
      "Ġsm": 339,
      "Ġbo": 340,
      "Ġwere": 341,
      "Ġne": 342,
      "Ġwanted": 343,
      "Ġbut": 344,
      "out": 345,
      "Ġfriends": 346,
      "ved": 347,
      "!\"": 348,
      "ht": 349,
      "ird": 350,
      "el": 351,
      "Ġbird": 352,
      "al": 353,
      "Ġan": 354,
      "ake": 355,
      "ĠIt": 356,
      "Ġtoo": 357,
      "ome": 358,
      "ug": 359,
      "ĠĊ": 360,
      "ide": 361,
      "Ġwent": 362,
      "Ġwh": 363,
      "Ġhel": 364,
      "ĠOnce": 365,
      "Ġis": 366,
      "Ġall": 367,
      "Ġhelp": 368,
      "ue": 369,
      "Ġloo": 370,
      "Ġlo": 371,
      "ter": 372,
      "Ġupon": 373,
      "ry": 374,
      "ore": 375,
      "ind": 376,
      "Ġfun": 377,
      "get": 378,
      "Ġtoy": 379,
      "ill": 380,
      "ame": 381,
      "Ġas": 382,
      "Ġat": 383,
      "ra": 384,
      "Ġj": 385,
      "Ġdid": 386,
      "gether": 387,
      "Ġre": 388,
      "ur": 389,
      "Ġo": 390,
      "Ġse": 391,
      "Ġtogether": 392,
      "ack": 393,
      "Ġcat": 394,
      "ly": 395,
      "Ġtre": 396,
      "ood": 397,
      "ic": 398,
      "ted": 399,
      "Ġdog": 400,
      "Ġcould": 401,
      "Ġcan": 402,
      "Ġtheir": 403,
      "ard": 404,
      "ec": 405,
      "ark": 406,
      "Ġgir": 407,
      "Ġplayed": 408,
      "Ġhim": 409,
      "Ġball": 410,
      "?\"": 411,
      "Ġgirl": 412,
      "Ġro": 413,
      "way": 414,
      "Ġgo": 415,
      "hed": 416,
      "my": 417,
      "Ġare": 418,
      "Ġout": 419,
      "Ġle": 420,
      "Ġfr": 421,
      "ain": 422,
      "ĠBut": 423,
      "hen": 424,
      "Ġkn": 425,
      "Ġthem": 426,
      "um": 427,
      "'t": 428,
      "ax": 429,
      "Ġsad": 430,
      "ĠW": 431,
      "ĠSue": 432,
      "ul": 433,
      "Ġboy": 434,
      "Ġtree": 435,
      "other": 436,
      "Ġhave": 437,
      "Ġman": 438,
      "ĠMax": 439,
      "Ġcl": 440,
      "Ġloved": 441,
      "Ġlooked": 442,
      "oug": 443,
      "Ġfound": 444,
      "Ġsp": 445,
      "Ġstar": 446,
      "one": 447,
      "hing": 448,
      "Ġsc": 449,
      "Ġback": 450,
      "own": 451,
      "ĠBen": 452,
      "are": 453,
      "Ġlike": 454,
      "ful": 455,
      "side": 456,
      "Ġme": 457,
      "Ġbec": 458,
      "ĠSam": 459,
      "Ġpark": 460,
      "ight": 461,
      "ong": 462,
      "Ġcar": 463,
      "ĠJ": 464,
      "op": 465,
      "elt": 466,
      "Ġliked": 467,
      "Ġwould": 468,
      "Ġmake": 469,
      "round": 470,
      "Ġla": 471,
      "Ġfa": 472,
      "Ġfelt": 473,
      "You": 474,
      "ell": 475,
      "Ġsee": 476,
      "omet": 477,
      "Ġasked": 478,
      "ag": 479,
      "Ġnew": 480,
      "Ġno": 481,
      "ice": 482,
      "ouse": 483,
      "Ġstarted": 484,
      "ared": 485,
      "Ġcame": 486,
      "Ġal": 487,
      "Ġother": 488,
      "ought": 489,
      "iled": 490,
      "ĠF": 491,
      "Ġsomet": 492,
      "Ġag": 493,
      "Ġgood": 494,
      "Ġsmall": 495,
      "ss": 496,
      "Ġbr": 497,
      "Ġsmiled": 498,
      "Ġsay": 499,
      "ried": 500,
      "ade": 501,
      "ĠSp": 502,
      "ings": 503,
      "ob": 504,
      "Ġwor": 505,
      "ĠSpot": 506,
      "Ġfind": 507,
      "ia": 508,
      "Ġaway": 509,
      "ty": 510,
      "Ġput": 511,
      "Ġex": 512,
      "Ġwhat": 513,
      "Ġsomething": 514,
      "Ġfrom": 515,
      "Ġmade": 516,
      "Ġthought": 517,
      "ened": 518,
      "Ġhome": 519,
      "Ġplaying": 520,
      "Ġco": 521,
      "ook": 522,
      "Ġevery": 523,
      "Ġwal": 524,
      "Ġmu": 525,
      "uc": 526,
      "ach": 527,
      "arn": 528,
      "Ġran": 529,
      "ile": 530,
      "ie": 531,
      "ĠMia": 532,
      "ave": 533,
      "Ġagain": 534,
      "Ġsome": 535,
      "Ġlaug": 536,
      "dd": 537,
      "Ġhouse": 538,
      "Ġdown": 539,
      "Ġfl": 540,
      "king": 541,
      "Ġtook": 542,
      "Ġscared": 543,
      "Ġpr": 544,
      "ny": 545,
      "ure": 546,
      "Ġtoys": 547,
      "Ġlearn": 548,
      "ĠYou": 549,
      "if": 550,
      "Ġwill": 551,
      "Ġbox": 552,
      "ick": 553,
      "ret": 554,
      "ab": 555,
      "ep": 556,
      "Ġmy": 557,
      "Ġaround": 558,
      "Ġthings": 559,
      "Ġyour": 560,
      "oud": 561,
      "Ġbl": 562,
      "uck": 563,
      "Ġwhen": 564,
      "ish": 565,
      "Ġlived": 566,
      "Ġfe": 567,
      "Ġthen": 568,
      "Ġsun": 569,
      "as": 570,
      "Ġsw": 571,
      "ĠSo": 572,
      ",\"": 573,
      "ĠMom": 574,
      "Ġch": 575,
      "us": 576,
      "pped": 577,
      "Ġab": 578,
      "ank": 579,
      "Ġget": 580,
      "ucy": 581,
      "ump": 582,
      "Ġlot": 583,
      "ist": 584,
      "ĠLucy": 585,
      "ĠD": 586,
      "oth": 587,
      "ap": 588,
      "Ġtried": 589,
      "Ġknow": 590,
      "Ġsays": 591,
      "Ġgot": 592,
      "ited": 593,
      "Ġwho": 594,
      "Th": 595,
      "Ġkne": 596,
      "ust": 597,
      "Ġmany": 598,
      "ĠBob": 599,
      "nder": 600,
      "Ġint": 601,
      "Ġabout": 602,
      "Ġpret": 603,
      "Ġdec": 604,
      "Ġany": 605,
      "Ġred": 606,
      "ive": 607,
      "Ġknew": 608,
      "ace": 609,
      "ous": 610,
      "Ġmore": 611,
      "ise": 612,
      "Ġv": 613,
      "Ġcare": 614,
      "ally": 615,
      "Ġpic": 616,
      "au": 617,
      "qu": 618,
      "Ġhug": 619,
      "Ġlearned": 620,
      "Ġpo": 621,
      "Ġwater": 622,
      "fter": 623,
      "Ġbecame": 624,
      "Ġbest": 625,
      "ĠAnd": 626,
      "ause": 627,
      "Ġop": 628,
      "Ġgre": 629,
      "ĠE": 630,
      "Ġexc": 631,
      "urp": 632,
      "ways": 633,
      "âĢ": 634,
      "Ġoutside": 635,
      "Ġlaughed": 636,
      "Ġlook": 637,
      "Ġalways": 638,
      "Ġdecid": 639,
      "Ġshow": 640,
      "Ġun": 641,
      "ant": 642,
      "Ġroom": 643,
      "fe": 644,
      "Ġdecided": 645,
      "Ġho": 646,
      "Ġbecause": 647,
      "Ġinto": 648,
      "Ġeat": 649,
      "ite": 650,
      "Ġjump": 651,
      "Ġpe": 652,
      "Ġboth": 653,
      "ers": 654,
      "ĠThen": 655,
      "Ġdad": 656,
      "udd": 657,
      "Ġke": 658,
      "Ġone": 659,
      "ĠWhen": 660,
      "nn": 661,
      "Ġthis": 662,
      "Ġexcited": 663,
      "Ġfast": 664,
      "Ġnice": 665,
      "Ġfeel": 666,
      "Yes": 667,
      "Ġrun": 668,
      "Ġlong": 669,
      "ĠAnn": 670,
      "Ġtold": 671,
      "Ġsk": 672,
      "Ġam": 673,
      "urpr": 674,
      "our": 675,
      "Ġinside": 676,
      "ull": 677,
      "Ġtr": 678,
      "Ġsurpr": 679,
      "Ġmo": 680,
      "ĠHis": 681,
      "ink": 682,
      "Ġpretty": 683,
      "iny": 684,
      "Ġsor": 685,
      "Ġtake": 686,
      "ĠFr": 687,
      "og": 688,
      "ĠC": 689,
      "Ġsl": 690,
      "Ġeach": 691,
      "Ġgave": 692,
      "hat": 693,
      "Ġmuch": 694,
      "Ġgra": 695,
      "lew": 696,
      "Ġrock": 697,
      "Ġhow": 698,
      "Ġstr": 699,
      "ara": 700,
      "imal": 701,
      "Ġanimal": 702,
      "ged": 703,
      "Ġneed": 704,
      "Ġthan": 705,
      "ĠAnna": 706,
      "ĠAmy": 707,
      "ven": 708,
      "etter": 709,
      "Ġtow": 710,
      "Ġor": 711,
      "ĠAs": 712,
      "Ġunder": 713,
      "ess": 714,
      "Ġold": 715,
      "Ġsorry": 716,
      "ge": 717,
      "ised": 718,
      "ro": 719,
      "urt": 720,
      "ĠSara": 721,
      "Ġcle": 722,
      "Ġfish": 723,
      "Ġwalked": 724,
      "Ġclo": 725,
      "and": 726,
      "here": 727,
      "Ġbear": 728,
      "ase": 729,
      "ast": 730,
      "Ġhand": 731,
      "urn": 732,
      "ĠWe": 733,
      "Ġkind": 734,
      "Ġhappened": 735,
      "Ġjust": 736,
      "Ġflow": 737,
      "ĠHer": 738,
      "Ġfood": 739,
      "Ġlist": 740,
      "Ġdidn": 741,
      "Ġte": 742,
      "Ġanimals": 743,
      "Ġhig": 744,
      "Ġnear": 745,
      "Ġwat": 746,
      "ĠIn": 747,
      "Ġide": 748,
      "Ġtry": 749,
      "ched": 750,
      "Ġsky": 751,
      "ine": 752,
      "Ġsn": 753,
      "pl": 754,
      "ving": 755,
      "Ġfi": 756,
      "Ġus": 757,
      "ĠFrom": 758,
      "Ġidea": 759,
      "Ġbetter": 760,
      "Ġbug": 761,
      "Ġheard": 762,
      "gry": 763,
      "Ġits": 764,
      "Ġtw": 765,
      "Ġlet": 766,
      "pec": 767,
      "ate": 768,
      "able": 769,
      "ff": 770,
      "Ġen": 771,
      "Ġcareful": 772,
      "Ġshare": 773,
      "Ġif": 774,
      "Thank": 775,
      "Ġfly": 776,
      "Ġstor": 777,
      "ial": 778,
      "Ġflew": 779,
      "more": 780,
      "Ġanymore": 781,
      "Ġspec": 782,
      "Ġspecial": 783,
      "ion": 784,
      "Ġcom": 785,
      "Ġlots": 786,
      "Ġnever": 787,
      "Ġby": 788,
      "lf": 789,
      "ream": 790,
      "Ġdan": 791,
      "Ġbu": 792,
      "Ġfo": 793,
      "Ġwind": 794,
      "Ġdon": 795,
      "ĠEvery": 796,
      "Ġtal": 797,
      "Ġclean": 798,
      "ort": 799,
      "Ġgr": 800,
      "Ġlove": 801,
      "rm": 802,
      "ber": 803,
      "Ġend": 804,
      "ople": 805,
      "Ġeven": 806,
      "Ġmag": 807,
      "ĠK": 808,
      "Ġhard": 809,
      "Ġshiny": 810,
      "udden": 811,
      "Ġfore": 812,
      "Ġover": 813,
      "Ġcake": 814,
      "ak": 815,
      "Ġbook": 816,
      "Ġcol": 817,
      "Ġturn": 818,
      "Ġfam": 819,
      "Ġbad": 820,
      "Ġsafe": 821,
      "Ġafter": 822,
      "ady": 823,
      "uddenly": 824,
      "Ġpeople": 825,
      "Ġproud": 826,
      "Ġsurprised": 827,
      "pected": 828,
      "Let": 829,
      "Ġhigh": 830,
      "Ġcu": 831,
      "Ġhurt": 832,
      "Ġcome": 833,
      "imb": 834,
      "arden": 835,
      "Ġdoor": 836,
      "Ġgarden": 837,
      "bb": 838,
      "Ġground": 839,
      "Ġopened": 840,
      "Ġpicked": 841,
      "Ġloud": 842,
      "Ġclimb": 843,
      "expected": 844,
      "Ġunexpected": 845,
      "hy": 846,
      "Ġgl": 847,
      "Ġche": 848,
      "ild": 849,
      "Ġim": 850,
      "Ġgive": 851,
      "Ġway": 852,
      "ail": 853,
      "'m": 854,
      "Ġthanked": 855,
      "Ġcolor": 856,
      "Ġblue": 857,
      "Ġstill": 858,
      "Ġever": 859,
      "Ġhugged": 860,
      "ĠP": 861,
      "Ġcall": 862,
      "Ġfar": 863,
      "ip": 864,
      "No": 865,
      "Ġoff": 866,
      "Ġmagic": 867,
      "iz": 868,
      "age": 869,
      "ough": 870,
      "ummy": 871,
      "Ġjumped": 872,
      "Ġshould": 873,
      "Ġfamily": 874,
      "Ġpar": 875,
      "ool": 876,
      "Ġkid": 877,
      "Ġsmile": 878,
      "ĠJo": 879,
      "hes": 880,
      "uff": 881,
      "Ġplace": 882,
      "kay": 883,
      "Ġwalk": 884,
      "Ġnow": 885,
      "ct": 886,
      "Ġgreat": 887,
      "em": 888,
      "Ġqu": 889,
      "ĠSuddenly": 890,
      "les": 891,
      "Ġstrong": 892,
      "Ġstay": 893,
      "Ġunt": 894,
      "Ġsto": 895,
      "aut": 896,
      "Ġforest": 897,
      "ture": 898,
      "ane": 899,
      "Ġbra": 900,
      "itty": 901,
      "Ġfrog": 902,
      "Ġbro": 903,
      "Ġuntil": 904,
      "Ġbeaut": 905,
      "dy": 906,
      "Ġsqu": 907,
      "Ġstick": 908,
      "Ġnext": 909,
      "Ġboat": 910,
      "lease": 911,
      "ning": 912,
      "ĠSally": 913,
      "ĠAfter": 914,
      "ĠN": 915,
      "Ġhappily": 916,
      "Ġlisten": 917,
      "aking": 918,
      "Ġkids": 919,
      "Ġtra": 920,
      "ĠKitty": 921,
      "ies": 922,
      "iful": 923,
      "Ġbeautiful": 924,
      "Ġapp": 925,
      "Ġhelped": 926,
      "Ġdra": 927,
      "Ġshowed": 928,
      "Ġclos": 929,
      "be": 930,
      "Ġimp": 931,
      "Ġstory": 932,
      "unny": 933,
      "Ġwhile": 934,
      "Ġtown": 935,
      "rel": 936,
      "pt": 937,
      "Ġrain": 938,
      "ress": 939,
      "Ġpicture": 940,
      "ĠAt": 941,
      "oy": 942,
      "Ġbeing": 943,
      "Ġrem": 944,
      "Ġeveryone": 945,
      "ary": 946,
      "ree": 947,
      "Ġmor": 948,
      "ĠR": 949,
      "Ġhat": 950,
      "Ġcalled": 951,
      "Ġmet": 952,
      "Ġstopped": 953,
      "Ġad": 954,
      "Ġgame": 955,
      "Ġwo": 956,
      "Can": 957,
      "Ġangry": 958,
      "ger": 959,
      "uffy": 960,
      "Ġsoft": 961,
      "ĠFin": 962,
      "Ġopen": 963,
      "Ġtruck": 964,
      "Ġkeep": 965,
      "Ġcry": 966,
      "Ġyummy": 967,
      "ĠTh": 968,
      "Ġlost": 969,
      "Ġbed": 970,
      "ĠLet": 971,
      "Ġwarm": 972,
      "by": 973,
      "vent": 974,
      "ĠJack": 975,
      "Ġbrave": 976,
      "Ġmouse": 977,
      "Ġate": 978,
      "oon": 979,
      "ished": 980,
      "Ġde": 981,
      "It": 982,
      "fore": 983,
      "Ġdoll": 984,
      "so": 985,
      "Ġcouldn": 986,
      "Ġwatch": 987,
      "Ġleave": 988,
      "Ġalso": 989,
      "dded": 990,
      "Ġfell": 991,
      "Ġgreen": 992,
      "Ġface": 993,
      "Ġtwo": 994,
      "ĠFl": 995,
      "gan": 996,
      "iss": 997,
      "Ġflowers": 998,
      "bit": 999,
      "ĠâĢ": 1000,
      "ble": 1001,
      "Ġnoise": 1002,
      "What": 1003,
      "abbit": 1004,
      "irst": 1005,
      "owl": 1006,
      "Ġwhere": 1007,
      "az": 1008,
      "ock": 1009,
      "Ġsoon": 1010,
      "self": 1011,
      "Ġslide": 1012,
      "Ġrabbit": 1013,
      "Ġhole": 1014,
      "ĠG": 1015,
      "Ġbefore": 1016,
      "irrel": 1017,
      "Ġpus": 1018,
      "ired": 1019,
      "Ġsat": 1020,
      "illy": 1021,
      "Ġhear": 1022,
      "ĠFluffy": 1023,
      "Ġuse": 1024,
      "Ġpa": 1025,
      "Ġkept": 1026,
      "Hi": 1027,
      "ĠâĢľ": 1028,
      "âĢĿ": 1029,
      "Ġsquirrel": 1030,
      "ear": 1031,
      "ma": 1032,
      "Ġnodded": 1033,
      "ĠNow": 1034,
      "Ġexpl": 1035,
      "Ġstore": 1036,
      "Ġcook": 1037,
      "Ġhands": 1038,
      "Look": 1039,
      "Ġbirds": 1040,
      "Ġpain": 1041,
      "Ġgoing": 1042,
      "Ġfunny": 1043,
      "Ġhaving": 1044,
      "day": 1045,
      "Ġsing": 1046,
      "aybe": 1047,
      "uch": 1048,
      "Ġey": 1049,
      "aug": 1050,
      "Ġcatch": 1051,
      "aught": 1052,
      "ĠCan": 1053,
      "uit": 1054,
      "Ġyell": 1055,
      "Ġthink": 1056,
      "leep": 1057,
      "Ġcra": 1058,
      "Ġfin": 1059,
      "Ġbre": 1060,
      "Ġfix": 1061,
      "Ġtired": 1062,
      "Ġbunny": 1063,
      "Ġused": 1064,
      "Ġlooking": 1065,
      "Ġbus": 1066,
      "ange": 1067,
      "air": 1068,
      "Ġwork": 1069,
      "Ġwr": 1070,
      "ting": 1071,
      "Ġour": 1072,
      "Ġpull": 1073,
      "We": 1074,
      "Ġthr": 1075,
      "That": 1076,
      "thing": 1077,
      "Ġwait": 1078,
      "Ġkit": 1079,
      "Ġsound": 1080,
      "Ġjo": 1081,
      "Ġhas": 1082,
      "Ġmean": 1083,
      "Ġpond": 1084,
      "ember": 1085,
      "Ġbeh": 1086,
      "Ġdr": 1087,
      "Ġsunny": 1088,
      "led": 1089,
      "Ġothers": 1090,
      "Ġask": 1091,
      "ng": 1092,
      "chen": 1093,
      "Ġkitchen": 1094,
      "Ġtalk": 1095,
      "Ġflo": 1096,
      "Ġdif": 1097,
      "Ġpie": 1098,
      "rew": 1099,
      "Ġhead": 1100,
      "Ġreal": 1101,
      "Ġfirst": 1102,
      "Ġtri": 1103,
      "Ġmommy": 1104,
      "Ġeyes": 1105,
      "ello": 1106,
      "Ġimport": 1107,
      "Hello": 1108,
      "Mom": 1109,
      "Ġfav": 1110,
      "ĠDo": 1111,
      "joy": 1112,
      "Ġz": 1113,
      "Ġremember": 1114,
      "Ġright": 1115,
      "Ġflower": 1116,
      "Ġcon": 1117,
      "Ġmess": 1118,
      "ĠWh": 1119,
      "Ġparty": 1120,
      "Ġcold": 1121,
      "Ġvo": 1122,
      "Ġswe": 1123,
      "ious": 1124,
      "ft": 1125,
      "Ġsand": 1126,
      "ac": 1127,
      "ath": 1128,
      "orn": 1129,
      "Ġrace": 1130,
      "Ġcuri": 1131,
      "imes": 1132,
      "Ġimportant": 1133,
      "Ġduck": 1134,
      "Ġmoral": 1135,
      "Ġshared": 1136,
      "zy": 1137,
      "ount": 1138,
      "Ġice": 1139,
      "Ġokay": 1140,
      "Ġadvent": 1141,
      "Ġworked": 1142,
      "llow": 1143,
      "irt": 1144,
      "Ġenjoy": 1145,
      "Ġdress": 1146,
      "Ġbright": 1147,
      "Ġmaking": 1148,
      "Ġcurious": 1149,
      "Ġown": 1150,
      "ĠDad": 1151,
      "Ġtall": 1152,
      "Ġhop": 1153,
      "reed": 1154,
      "Ġhid": 1155,
      "Ġfavor": 1156,
      "Ġri": 1157,
      "hn": 1158,
      "Ġsleep": 1159,
      "Ġdis": 1160,
      "Ġfavorite": 1161,
      "Wow": 1162,
      "Ġthing": 1163,
      "Ġbegan": 1164,
      "Ġmon": 1165,
      "Ġbag": 1166,
      "Ġhill": 1167,
      "Ġcla": 1168,
      "Don": 1169,
      "Ġdraw": 1170,
      "Ġrest": 1171,
      "Ġhere": 1172,
      "Ġyard": 1173,
      "ĠThis": 1174,
      "Ġtell": 1175,
      "ĠJohn": 1176,
      "ster": 1177,
      "Ġwatched": 1178,
      "que": 1179,
      "Ġfollow": 1180,
      "Ġmove": 1181,
      "Ġbel": 1182,
      "ect": 1183,
      "Ġcut": 1184,
      "Ġnight": 1185,
      "Ġagreed": 1186,
      "Ġpick": 1187,
      "co": 1188,
      "Ġblock": 1189,
      "Ġhun": 1190,
      "aper": 1191,
      "lly": 1192,
      "Ġstop": 1193,
      "Ġbehind": 1194,
      "Ġsurprise": 1195,
      "ied": 1196,
      "Ġsho": 1197,
      "Ġhot": 1198,
      "Ġtable": 1199,
      "Ġgrass": 1200,
      "Ġworry": 1201,
      "Ġdark": 1202,
      "Ġtrees": 1203,
      "Ġvoice": 1204,
      "Ġwalking": 1205,
      "fere": 1206,
      "Ġfloor": 1207,
      "Ġfarm": 1208,
      "Ġlion": 1209,
      "Ġtop": 1210,
      "Ġdiffere": 1211,
      "Ġplease": 1212,
      "ĠThat": 1213,
      "ĠMr": 1214,
      "Ġru": 1215,
      "Ġsong": 1216,
      "ĠBobo": 1217,
      "Ġbutter": 1218,
      "Ġtail": 1219,
      "Ġsweet": 1220,
      "Ġshout": 1221,
      "Ġcolors": 1222,
      "Ġread": 1223,
      "Ġlady": 1224,
      "Ġforg": 1225,
      "isy": 1226,
      "ĠJane": 1227,
      "Ġleaves": 1228,
      "Ġcloser": 1229,
      "ign": 1230,
      "Ġcars": 1231,
      "ĠTimmy": 1232,
      "Ġturned": 1233,
      "Ġneeded": 1234,
      "Ġtast": 1235,
      "Why": 1236,
      "aring": 1237,
      "Ġwood": 1238,
      "Ġcried": 1239,
      "Ġdifferent": 1240,
      "Ġlaugh": 1241,
      "Ġdel": 1242,
      "Ġpiece": 1243,
      "âĢĻ": 1244,
      "ered": 1245,
      "Ġroll": 1246,
      "Ġadventure": 1247,
      "Ġfire": 1248,
      "Ġdoes": 1249,
      "ike": 1250,
      "Ġcr": 1251,
      "Ġhungry": 1252,
      "Ġhair": 1253,
      "Ġpaper": 1254,
      "Ġfeeling": 1255,
      "Ġyellow": 1256,
      "Ġfull": 1257,
      "bo": 1258,
      "Ġprin": 1259,
      "Ġtouch": 1260,
      "Ġwet": 1261,
      "Ġfriendly": 1262,
      "Ġper": 1263,
      "oom": 1264,
      "ken": 1265,
      "cked": 1266,
      "ĠMommy": 1267,
      "ached": 1268,
      "Ġswing": 1269,
      "Ġfruit": 1270,
      "ient": 1271,
      "Ġbroken": 1272,
      "Ġready": 1273,
      "ĠAll": 1274,
      "bye": 1275,
      "ppy": 1276,
      "Ġprom": 1277,
      "Ġanother": 1278,
      "Ġlight": 1279,
      "Ġpretend": 1280,
      "Ġdance": 1281,
      "ater": 1282,
      "Ġclimbed": 1283,
      "where": 1284,
      "Ġlistened": 1285,
      "Ġdanc": 1286,
      "Ġrunning": 1287,
      "Ġonly": 1288,
      "Ġplan": 1289,
      "Ġgone": 1290,
      "Ġswim": 1291,
      "bbed": 1292,
      "Ġtrain": 1293,
      "ila": 1294,
      "ndma": 1295,
      "sh": 1296,
      "Ġclose": 1297,
      "av": 1298,
      "art": 1299,
      "Ġsmell": 1300,
      "aby": 1301,
      "Ġamaz": 1302,
      "Ġhold": 1303,
      "Ġblocks": 1304,
      "Ġwonder": 1305,
      "Ġrepl": 1306,
      "ĠEveryone": 1307,
      "ĠLila": 1308,
      "Ġbutterf": 1309,
      "Ġsees": 1310,
      "Ġreached": 1311,
      "Ġwall": 1312,
      "Ġpu": 1313,
      "oney": 1314,
      "Ġslow": 1315,
      "Ġhelping": 1316,
      "Ġdri": 1317,
      "Ġcream": 1318,
      "Ġcool": 1319,
      "Ġglad": 1320,
      "af": 1321,
      "Ġant": 1322,
      "Ġless": 1323,
      "Ġbeen": 1324,
      "Ġgoodbye": 1325,
      "Ġac": 1326,
      "Ġfight": 1327,
      "ather": 1328,
      "ey": 1329,
      "Ġpushed": 1330,
      "iced": 1331,
      "Ġfair": 1332,
      "Ġmust": 1333,
      "Ġhide": 1334,
      "Ġmoment": 1335,
      "Ġwindow": 1336,
      "Ġsit": 1337,
      "Ġar": 1338,
      "Ġballoon": 1339,
      "Ġsnow": 1340,
      "Ġchild": 1341,
      "Ġexplore": 1342,
      "Ġwished": 1343,
      "Ġbaby": 1344,
      "Ġdone": 1345,
      "Ġwag": 1346,
      "Ġste": 1347,
      "Ġbuy": 1348,
      "Ġstuck": 1349,
      "Ġperf": 1350,
      "ĠJust": 1351,
      "ĠSoon": 1352,
      "Ġthank": 1353,
      "Ġmight": 1354,
      "icy": 1355,
      "Ġname": 1356,
      "ized": 1357,
      "Ġtrying": 1358,
      "Ġbit": 1359,
      "Ġcoming": 1360,
      "Ġbar": 1361,
      "Ġquick": 1362,
      "Ġfall": 1363,
      "Ġapple": 1364,
      "ĠTo": 1365,
      "Ġscary": 1366,
      "ash": 1367,
      "Ġlooks": 1368,
      "Ġbuild": 1369,
      "Ġdoing": 1370,
      "irty": 1371,
      "Ġwin": 1372,
      "Ġunderst": 1373,
      "aisy": 1374,
      "Ġdin": 1375,
      "Ġdream": 1376,
      "ĠThere": 1377,
      "Ġdirty": 1378,
      "Ġheld": 1379,
      "ames": 1380,
      "Ġbooks": 1381,
      "Ġmar": 1382,
      "Ġbutterfly": 1383,
      "Ġleft": 1384,
      "Ġshouted": 1385,
      "Ġcount": 1386,
      "Ġreplied": 1387,
      "avy": 1388,
      "Ġreach": 1389,
      "Ġtiny": 1390,
      "Ġthrough": 1391,
      "ott": 1392,
      "Ġdro": 1393,
      "Ġwhy": 1394,
      "Ġair": 1395,
      "Ġbran": 1396,
      "Ġland": 1397,
      "key": 1398,
      "Ġthree": 1399,
      "Ġpulled": 1400,
      "Ġspl": 1401,
      "Ġgrow": 1402,
      "Ġtreat": 1403,
      "Ġbrother": 1404,
      "Ġwise": 1405,
      "Ġwoods": 1406,
      "Ġsure": 1407,
      "'re": 1408,
      "Ġchair": 1409,
      "ix": 1410,
      "Ġmat": 1411,
      "ins": 1412,
      "Ġseen": 1413,
      "Ġpink": 1414,
      "Ġclapped": 1415,
      "Ġplant": 1416,
      "ely": 1417,
      "Ġowl": 1418,
      "Ġcup": 1419,
      "ield": 1420,
      "Ġsometimes": 1421,
      "andy": 1422,
      "Ġfill": 1423,
      "Ġcloud": 1424,
      "ask": 1425,
      "Ġswam": 1426,
      "outh": 1427,
      "Ġjob": 1428,
      "Ġcolorful": 1429,
      "ĠInside": 1430,
      "Ġremembered": 1431,
      "Ġbigger": 1432,
      "Ġnest": 1433,
      "Ġmouth": 1434,
      "Okay": 1435,
      "Ġlesson": 1436,
      "Ġjoin": 1437,
      "Ġcre": 1438,
      "ph": 1439,
      "oup": 1440,
      "room": 1441,
      "Ġwaved": 1442,
      "uddy": 1443,
      "Ġgrabbed": 1444,
      "Ġstayed": 1445,
      "Oh": 1446,
      "Ġpaint": 1447,
      "Ġclot": 1448,
      "Ġcont": 1449,
      "Ġclothes": 1450,
      "ower": 1451,
      "ĠDaisy": 1452,
      "Ġwaited": 1453,
      "Ġquickly": 1454,
      "cle": 1455,
      "Ġword": 1456,
      "Ġbroke": 1457,
      "ucky": 1458,
      "Ġgames": 1459,
      "Ġcast": 1460,
      "ĠBuddy": 1461,
      "Ġblew": 1462,
      "Ġgent": 1463,
      "ĠFinally": 1464,
      "ĠWhile": 1465,
      "Ġenjoyed": 1466,
      "Ġnoticed": 1467,
      "ries": 1468,
      "ation": 1469,
      "Ġset": 1470,
      "Ġlikes": 1471,
      "Ġpictures": 1472,
      "Ġmus": 1473,
      "ton": 1474,
      "de": 1475,
      "Ġsea": 1476,
      "Ġheavy": 1477,
      "Ġalone": 1478,
      "Ġgif": 1479,
      "asure": 1480,
      "Ġanything": 1481,
      "Ġspot": 1482,
      "Ġmiss": 1483,
      "Ġhopped": 1484,
      "Ġworld": 1485,
      "Ġturns": 1486,
      "orm": 1487,
      "Ġyear": 1488,
      "der": 1489,
      "Ġbott": 1490,
      "Ġpat": 1491,
      "Ġpot": 1492,
      "This": 1493,
      "Ġpen": 1494,
      "lc": 1495,
      "ĠSarah": 1496,
      "Ġmix": 1497,
      "Ġarm": 1498,
      "Ġbike": 1499,
      "Ġtight": 1500,
      "ĠTommy": 1501,
      "Ġeverywhere": 1502,
      "Ġwon": 1503,
      "Ġtower": 1504,
      "Ġthrew": 1505,
      "Ġhimself": 1506,
      "Ġfollowed": 1507,
      "Ġride": 1508,
      "man": 1509,
      "ere": 1510,
      "pe": 1511,
      "less": 1512,
      "Ġju": 1513,
      "Ġje": 1514,
      "amp": 1515,
      "ape": 1516,
      "Ġcomp": 1517,
      "Ġkey": 1518,
      "eddy": 1519,
      "row": 1520,
      "ĠWhat": 1521,
      "\".": 1522,
      "Ġwhite": 1523,
      "ctor": 1524,
      "Ġwrong": 1525,
      "Ġmakes": 1526,
      "Ġbreak": 1527,
      "Ġblack": 1528,
      "arent": 1529,
      "ee": 1530,
      "ner": 1531,
      "Ġdeep": 1532,
      "thy": 1533,
      "Ġmusic": 1534,
      "ĠEm": 1535,
      "Ġpol": 1536,
      "Ġdelic": 1537,
      "cess": 1538,
      "ued": 1539,
      "Ġforgot": 1540,
      "Ġbee": 1541,
      "Ġparent": 1542,
      "olly": 1543,
      "Ġcastle": 1544,
      "ves": 1545,
      "Ġem": 1546,
      "Do": 1547,
      "iet": 1548,
      "Ġwear": 1549,
      "Ġhit": 1550,
      "Ġve": 1551,
      "ister": 1552,
      "oun": 1553,
      "Ġquiet": 1554,
      "Ġround": 1555,
      "ĠBilly": 1556,
      "ance": 1557,
      "Ġstu": 1558,
      "Ġdanced": 1559,
      "Ġvis": 1560,
      "ully": 1561,
      "Ġwants": 1562,
      "Ġleaf": 1563,
      "Ġmonster": 1564,
      "Ġnap": 1565,
      "Ġunderstand": 1566,
      "ang": 1567,
      "Ġbowl": 1568,
      "os": 1569,
      "rot": 1570,
      "Ġbor": 1571,
      "Ġtalked": 1572,
      "itten": 1573,
      "ren": 1574,
      "Ġdry": 1575,
      "Ġfaster": 1576,
      "Ġcookies": 1577,
      "ĠGra": 1578,
      "ĠJoe": 1579,
      "Ġbrought": 1580,
      "fully": 1581,
      "Ġleg": 1582,
      "ross": 1583,
      "Ġmum": 1584,
      "zz": 1585,
      "Ġside": 1586,
      "Ġsign": 1587,
      "Ġsmart": 1588,
      "cy": 1589,
      "Ġrocks": 1590,
      "Ġsomeone": 1591,
      "Ġpoin": 1592,
      "Ġsec": 1593,
      "Ġsharing": 1594,
      "Ġfox": 1595,
      "Ġwell": 1596,
      "Ġres": 1597,
      "Ġrel": 1598,
      "Ġhappen": 1599,
      "Ġbutton": 1600,
      "Ġbranch": 1601,
      "Ġreally": 1602,
      "Ġfinished": 1603,
      "ence": 1604,
      "ards": 1605,
      "Ġdinner": 1606,
      "Ġsister": 1607,
      "Ġflying": 1608,
      "Ġcontin": 1609,
      "Ġworried": 1610,
      "Ġele": 1611,
      "ĠZ": 1612,
      "Ġvisit": 1613,
      "ĠMaybe": 1614,
      "Ġbeach": 1615,
      "Ġque": 1616,
      "th": 1617,
      "Ġsecret": 1618,
      "Ġel": 1619,
      "Ġking": 1620,
      "Ġgift": 1621,
      "gy": 1622,
      "Ġtoday": 1623,
      "Ġperfect": 1624,
      "Ġriver": 1625,
      "Ġeverything": 1626,
      "Ġsilly": 1627,
      "Ġshin": 1628,
      "ipp": 1629,
      "Ġdanger": 1630,
      "Ġchildren": 1631,
      "Ġgu": 1632,
      "Ġfield": 1633,
      "Ġfilled": 1634,
      "Ġfur": 1635,
      "Ġelse": 1636,
      "Ġsmiles": 1637,
      "Ġwelc": 1638,
      "Ġwish": 1639,
      "Ġsang": 1640,
      "Ġgi": 1641,
      "ze": 1642,
      "Ġpudd": 1643,
      "Ġsnack": 1644,
      "Ġeating": 1645,
      "Ġrealized": 1646,
      "Ġpieces": 1647,
      "Ġpromised": 1648,
      "ĠCh": 1649,
      "ord": 1650,
      "Ġspr": 1651,
      "Ġpig": 1652,
      "Ġfree": 1653,
      "Ġcontinued": 1654,
      "Ġstart": 1655,
      "Ġbite": 1656,
      "ead": 1657,
      "Ġparents": 1658,
      "Ġcarefully": 1659,
      "ated": 1660,
      "itting": 1661,
      "Ġjar": 1662,
      "Ġcow": 1663,
      "Maybe": 1664,
      "Ġblank": 1665,
      "Ġdrag": 1666,
      "stead": 1667,
      "Ġorange": 1668,
      "Ġmud": 1669,
      "Ġcrying": 1670,
      "Ġblanket": 1671,
      "Ġenough": 1672,
      "Ġrolled": 1673,
      "cket": 1674,
      "Ġsoup": 1675,
      "Ġsail": 1676,
      "Ġpurp": 1677,
      "imi": 1678,
      "Ġyes": 1679,
      "ale": 1680,
      "Ġdrink": 1681,
      "Ġsnake": 1682,
      "ses": 1683,
      "Ġboun": 1684,
      "Ġpet": 1685,
      "Ġcrab": 1686,
      "Ġlaughing": 1687,
      "Ġthrow": 1688,
      "Ġfairy": 1689,
      "Ġwords": 1690,
      "Ġamazing": 1691,
      "ĠJim": 1692,
      "Ġbath": 1693,
      "ich": 1694,
      "Ġpurple": 1695,
      "ĠJen": 1696,
      "Ġwithout": 1697,
      "ire": 1698,
      "ĠMimi": 1699,
      "Ġbottle": 1700,
      "Ġgrandma": 1701,
      "used": 1702,
      "ons": 1703,
      "Ġpast": 1704,
      "Ġmoney": 1705,
      "iver": 1706,
      "fort": 1707,
      "Ġmail": 1708,
      "Ġbarked": 1709,
      "Ġwagged": 1710,
      "Ġatt": 1711,
      "chool": 1712,
      "Ġmonkey": 1713,
      "Ġdoctor": 1714,
      "unch": 1715,
      "Ġbrown": 1716,
      "Ġmoved": 1717,
      "ises": 1718,
      "Ġasks": 1719,
      "ĠBl": 1720,
      "Ġgetting": 1721,
      "Ġclosed": 1722,
      "Ġwhe": 1723,
      "Ġwelcome": 1724,
      "Ġsu": 1725,
      "Ġcandy": 1726,
      "Ġschool": 1727,
      "Ġmorning": 1728,
      "Ġowner": 1729,
      "gg": 1730,
      "Ġlon": 1731,
      "Ġmother": 1732,
      "Ġhigher": 1733,
      "Ġsitting": 1734,
      "Ġtreasure": 1735,
      ".âĢĿ": 1736,
      "Ġsmo": 1737,
      "!âĢĿ": 1738,
      "Ġdangerous": 1739,
      "Ġlonely": 1740,
      "Ġliving": 1741,
      "Ġapples": 1742,
      "Ġshop": 1743,
      "ased": 1744,
      "Ġstrange": 1745,
      "vel": 1746,
      "ush": 1747,
      "Ġshining": 1748,
      "Ġroad": 1749,
      "Ġcreat": 1750,
      "una": 1751,
      "Ġpaw": 1752,
      "Ġ-": 1753,
      "Ġra": 1754,
      "Ġshoes": 1755,
      "Ġpre": 1756,
      "ible": 1757,
      "Ġstre": 1758,
      "Ġtalking": 1759,
      "althy": 1760,
      "Ġcaught": 1761,
      "Ġegg": 1762,
      "ol": 1763,
      "Ġpass": 1764,
      "me": 1765,
      "Ġlake": 1766,
      "Ġruns": 1767,
      "Ġbuck": 1768,
      "Ġletter": 1769,
      "Ġwings": 1770,
      "Ġchee": 1771,
      "fish": 1772,
      "Ġmad": 1773,
      "Ġfan": 1774,
      "asket": 1775,
      "Ġbasket": 1776,
      "ass": 1777,
      "Ġdragon": 1778,
      "app": 1779,
      "But": 1780,
      "set": 1781,
      "cks": 1782,
      "Ġstone": 1783,
      "Ġthinks": 1784,
      "Tim": 1785,
      "Ġstand": 1786,
      "Ġdelicious": 1787,
      "Ġnose": 1788,
      "Ġpuddle": 1789,
      "Ġtom": 1790,
      "Ġbelie": 1791,
      "Ġfarmer": 1792,
      "Ġsame": 1793,
      "Ġyears": 1794,
      "board": 1795,
      "Ġteddy": 1796,
      "Ġbat": 1797,
      "isk": 1798,
      "itch": 1799,
      "Ġmine": 1800,
      "Ġsear": 1801,
      "Ġcoat": 1802,
      "ches": 1803,
      "ĠEmma": 1804,
      "igh": 1805,
      "Ġdays": 1806,
      "Ġbring": 1807,
      "Ġgentle": 1808,
      "Ġfit": 1809,
      "ĠTogether": 1810,
      "Ġfinally": 1811,
      "Ġwhist": 1812,
      "ars": 1813,
      "Ġcray": 1814,
      "igg": 1815,
      "Ġscream": 1816,
      "Ġkite": 1817,
      "ĠMolly": 1818,
      "Ġheart": 1819,
      "Ġpill": 1820,
      "phant": 1821,
      "arm": 1822,
      "ĠRe": 1823,
      "Ġvill": 1824,
      "Ġcho": 1825,
      "Ġsinging": 1826,
      "The": 1827,
      "ella": 1828,
      "sw": 1829,
      "ined": 1830,
      "Ġtasty": 1831,
      "Ġben": 1832,
      "Ġph": 1833,
      "Ġtrou": 1834,
      "Ġshell": 1835,
      "Ġherself": 1836,
      "Ġhoped": 1837,
      "Ġansw": 1838,
      "Ġwore": 1839,
      "Ġswings": 1840,
      "sy": 1841,
      "Ġhor": 1842,
      "Ġbelong": 1843,
      "Please": 1844,
      "Ġpush": 1845,
      "iskers": 1846,
      "Ġcarrot": 1847,
      "Ġarri": 1848,
      "aughty": 1849,
      "Ġteach": 1850,
      "ĠBlue": 1851,
      "bow": 1852,
      "ract": 1853,
      "Ġnaughty": 1854,
      "Ġbush": 1855,
      "Ġelephant": 1856,
      "Ġdropped": 1857,
      "Ġshap": 1858,
      "ier": 1859,
      "Ġcoll": 1860,
      "sc": 1861,
      "Ġteac": 1862,
      "Ġwoke": 1863,
      "red": 1864,
      "ball": 1865,
      "Ġpile": 1866,
      "Ġhiding": 1867,
      "Ġcour": 1868,
      "ĠTheir": 1869,
      "ĠWhiskers": 1870,
      "Ġpart": 1871,
      "isa": 1872,
      "erry": 1873,
      "Ġtouc": 1874,
      "Ġmin": 1875,
      "Ġpuppy": 1876,
      "'ll": 1877,
      "Ġseem": 1878,
      "llie": 1879,
      "Ġtwins": 1880,
      "ama": 1881,
      "Ġlunch": 1882,
      "Ġbow": 1883,
      "Ġsack": 1884,
      "ĠRemy": 1885,
      "Ġpers": 1886,
      "Tom": 1887,
      "Ġcourse": 1888,
      "Ġcheered": 1889,
      "Ġshapes": 1890,
      "Ġgrew": 1891,
      "ĠBella": 1892,
      "fused": 1893,
      "Ġrope": 1894,
      "Ġvillage": 1895,
      "irth": 1896,
      "irthday": 1897,
      "Ġjuice": 1898,
      "ipped": 1899,
      "Ġrainbow": 1900,
      "ĠLisa": 1901,
      "Ġspin": 1902,
      "OK": 1903,
      "ĠMark": 1904,
      "Ġshook": 1905,
      "Ġspoon": 1906,
      "Ġbench": 1907,
      "Ġstreet": 1908,
      "Ġfence": 1909,
      "Ġcute": 1910,
      "ĠLe": 1911,
      "Ġrob": 1912,
      "Ġnut": 1913,
      "Ġcheese": 1914,
      "Ġprob": 1915,
      "Ġtouched": 1916,
      "idge": 1917,
      "col": 1918,
      "Ġjoy": 1919,
      "ĠJill": 1920,
      "Ġarrived": 1921,
      "Ġseed": 1922,
      "Ġwar": 1923,
      "Ġteacher": 1924,
      "Ġcorn": 1925,
      "Good": 1926,
      "Ġforever": 1927,
      "Ġable": 1928,
      "Ġbell": 1929,
      "Ġfew": 1930,
      "Ġcarry": 1931,
      "ĠGrandma": 1932,
      "Ġmost": 1933,
      "Ġplane": 1934,
      "lem": 1935,
      "Ġeas": 1936,
      "Ġsounds": 1937,
      "lla": 1938,
      "Ġdes": 1939,
      "Ġspo": 1940,
      "Ġproblem": 1941,
      "Ġbirthday": 1942,
      "Ġpower": 1943,
      "Ġinc": 1944,
      "umb": 1945,
      "br": 1946,
      "Ġbugs": 1947,
      "ilk": 1948,
      "Ġwonderful": 1949,
      "ĠThank": 1950,
      "Ġdolls": 1951,
      "Ġbusy": 1952,
      "ato": 1953,
      "irp": 1954,
      "Ġwra": 1955,
      "Ġpromise": 1956,
      "Ġfeels": 1957,
      "ian": 1958,
      "eter": 1959,
      "Ġbread": 1960,
      "ost": 1961,
      "Ġneck": 1962,
      "Ġmilk": 1963,
      "Ġrobot": 1964,
      "Ġrec": 1965,
      "Ġshy": 1966,
      "ountain": 1967,
      "Ġkiss": 1968,
      "Ġband": 1969,
      "Ġcave": 1970,
      "Ġpocket": 1971,
      "eb": 1972,
      "ub": 1973,
      "Ġhelpful": 1974,
      "gly": 1975,
      "Ġslowly": 1976,
      "Ġbelieve": 1977,
      "Ġshake": 1978,
      "umpy": 1979,
      "eared": 1980,
      "Ġpatient": 1981,
      "Ġpop": 1982,
      "Ġob": 1983,
      "arp": 1984,
      "Ġlive": 1985,
      "Ġstorm": 1986,
      "ĠFred": 1987,
      "Ġholding": 1988,
      "Ġugly": 1989,
      "Ġtowards": 1990,
      "Ġupset": 1991,
      "Ġturt": 1992,
      "Ġshr": 1993,
      "adow": 1994,
      "Ġcover": 1995,
      "Ġkitten": 1996,
      "Ġsharp": 1997,
      "Ġdisapp": 1998,
      "Ġstories": 1999,
      "Ġsuc": 2000,
      "Ġhoney": 2001,
      "ove": 2002,
      "read": 2003,
      "Ġnoises": 2004,
      "Ġcir": 2005,
      "Ġballs": 2006,
      "ĠLater": 2007,
      "Ġspark": 2008,
      "Ġgray": 2009,
      "Ġdist": 2010,
      "Ġdirt": 2011,
      "oggy": 2012,
      "Ġlate": 2013,
      "Ġdriver": 2014,
      "Ġseat": 2015,
      "Ġbucket": 2016,
      "Ġmeet": 2017,
      "Ġyoung": 2018,
      "Ġamazed": 2019,
      "Ġturtle": 2020,
      "alm": 2021,
      "Ġspid": 2022,
      "Ġtreats": 2023,
      "ĠBe": 2024,
      "Ġmagical": 2025,
      "unt": 2026,
      "ator": 2027,
      "Ġglow": 2028,
      "Ġseek": 2029,
      "Ġzoom": 2030,
      "Ġlem": 2031,
      "Ġsandw": 2032,
      "fortable": 2033,
      "umber": 2034,
      "Ġtrip": 2035,
      "Ġmist": 2036,
      "Ġsplas": 2037,
      "ĠLeo": 2038,
      "ourn": 2039,
      "Ġmark": 2040,
      "Ġjourn": 2041,
      "Ġfold": 2042,
      "Ġmach": 2043,
      "Ġpuzz": 2044,
      "ling": 2045,
      "Ġhorse": 2046,
      "Ġorgan": 2047,
      "Ġwild": 2048,
      "Ġprincess": 2049,
      "pping": 2050,
      "oose": 2051,
      "Ġcookie": 2052,
      "ens": 2053,
      "Ġhugs": 2054,
      "Lily": 2055,
      "Ġtaking": 2056,
      "ung": 2057,
      "Ġwheel": 2058,
      "epend": 2059,
      "Ġcloth": 2060,
      "Ġsug": 2061,
      "Ġinstead": 2062,
      "Ġbubb": 2063,
      "Ġstring": 2064,
      "Ġnet": 2065,
      "Ġdrove": 2066,
      "iling": 2067,
      "Ġrude": 2068,
      "Ġhuge": 2069,
      "Ġcoin": 2070,
      "Ġstars": 2071,
      "Ġfighting": 2072,
      "Ġspicy": 2073,
      "Ġlucky": 2074,
      "Sure": 2075,
      "Of": 2076,
      "Ġcraw": 2077,
      "Hey": 2078,
      "Ġbone": 2079,
      "Ġinv": 2080,
      "ors": 2081,
      "not": 2082,
      "ĠMary": 2083,
      "Ġca": 2084,
      "pper": 2085,
      "Ġforget": 2086,
      "up": 2087,
      "Ġdi": 2088,
      "aur": 2089,
      "Ġsal": 2090,
      "ert": 2091,
      "Ġcannot": 2092,
      "Ġwhistle": 2093,
      "Ġcard": 2094,
      "Ġsick": 2095,
      "Ġpath": 2096,
      "Ġcou": 2097,
      "Ġspider": 2098,
      "Ġwide": 2099,
      "ĠMama": 2100,
      "Ġfoot": 2101,
      "Ġsnowman": 2102,
      "Ġlife": 2103,
      "Ġsongs": 2104,
      "Ġpillow": 2105,
      "ize": 2106,
      "ĠBu": 2107,
      "Ġfixed": 2108,
      "ĠCat": 2109,
      "est": 2110,
      "Ġgiant": 2111,
      "rill": 2112,
      "Ġcart": 2113,
      "ĠWith": 2114,
      "Ġnod": 2115,
      "Ġboss": 2116,
      "ular": 2117,
      "Ġlast": 2118,
      "Ġcomes": 2119,
      "Ġjoke": 2120,
      "ĠLuna": 2121,
      "Ġmoon": 2122,
      "Ġtaste": 2123,
      "den": 2124,
      "Ġmachine": 2125,
      "Ġgrumpy": 2126,
      "ĠDaddy": 2127,
      "Ġwave": 2128,
      "Ġthin": 2129,
      "Ġdrive": 2130,
      "Ġash": 2131,
      "Ġser": 2132,
      "Ġgrab": 2133,
      "Ġpeace": 2134,
      "Ġdaddy": 2135,
      "ery": 2136,
      "Ġsel": 2137,
      "Ġshelf": 2138,
      "Ġhidden": 2139,
      "erest": 2140,
      "Ġsuddenly": 2141,
      "Ġwasn": 2142,
      "Ġwrite": 2143,
      "Ġlanded": 2144,
      "Ġconfused": 2145,
      "lower": 2146,
      "Ġring": 2147,
      "Ġchange": 2148,
      "Ġworm": 2149,
      "oop": 2150,
      "Ġinterest": 2151,
      "Ġchased": 2152,
      "Ġfruits": 2153,
      "Ġsour": 2154,
      "ity": 2155,
      "Ġmyster": 2156,
      "Ġbark": 2157,
      "Ġrad": 2158,
      "Ġsmooth": 2159,
      "ĠCome": 2160,
      "Ġadventures": 2161,
      "Ġval": 2162,
      "Ġstepped": 2163,
      "Ġfle": 2164,
      "ope": 2165,
      "Ġoven": 2166,
      "ĠChirp": 2167,
      "Ġtakes": 2168,
      "Ġmissed": 2169,
      "let": 2170,
      "Ġselfish": 2171,
      "kin": 2172,
      "Ġsheep": 2173,
      "Ġmessy": 2174,
      "Ġacross": 2175,
      "Ġent": 2176,
      "Ġexp": 2177,
      "to": 2178,
      "Ġce": 2179,
      "Ġlater": 2180,
      "elly": 2181,
      "ife": 2182,
      "ever": 2183,
      "Ġsticks": 2184,
      "Ġtie": 2185,
      "pect": 2186,
      "Ġbought": 2187,
      "Ġstep": 2188,
      "Ġdrew": 2189,
      "Ġban": 2190,
      "box": 2191,
      "?âĢĿ": 2192,
      "Ġwash": 2193,
      "Ġlay": 2194,
      "Ġpour": 2195,
      "ose": 2196,
      "Ġbeak": 2197,
      "Ġjog": 2198,
      "Ġgrate": 2199,
      "ĠMomo": 2200,
      "Ġducks": 2201,
      "Ġspe": 2202,
      "Ġlegs": 2203,
      "ugg": 2204,
      "Ġfil": 2205,
      "Ġemp": 2206,
      "mer": 2207,
      "Ġhope": 2208,
      "Ġtea": 2209,
      "Ġempty": 2210,
      "Ġslid": 2211,
      "Ġfeather": 2212,
      "Ġshirt": 2213,
      "Ġsleepy": 2214,
      "Ġdrum": 2215,
      "amed": 2216,
      "ĠChirpy": 2217,
      "Ġzoo": 2218,
      "Ġpan": 2219,
      "eth": 2220,
      "Ġphone": 2221,
      "Ġgrateful": 2222,
      "Ġfing": 2223,
      "ions": 2224,
      "ĠOllie": 2225,
      "Ġlemon": 2226,
      "Ġclever": 2227,
      "Ġsmelly": 2228,
      "Ġimag": 2229,
      "Ġinteresting": 2230,
      "Ġsave": 2231,
      "Ġchick": 2232,
      "Ġcalm": 2233,
      "Ġsplash": 2234,
      "Ġmed": 2235,
      "Ġwatching": 2236,
      "izzy": 2237,
      "ĠJerry": 2238,
      "izz": 2239,
      "Ġplate": 2240,
      "Ġign": 2241,
      "ĠBunny": 2242,
      "yard": 2243,
      "Ġclouds": 2244,
      "Ġbanan": 2245,
      "Ġline": 2246,
      "Ġfaces": 2247,
      "Ġba": 2248,
      "Ġact": 2249,
      "Ġthough": 2250,
      "Ġwolf": 2251,
      "Ġbackyard": 2252,
      "wel": 2253,
      "Ġseemed": 2254,
      "Ġdogs": 2255,
      "ĠJimmy": 2256,
      "Ġspray": 2257,
      "ĠDoggy": 2258,
      "Come": 2259,
      "Ġprot": 2260,
      "Ġwhole": 2261,
      "Ġmot": 2262,
      "Ġfancy": 2263,
      "Ġquest": 2264,
      "Ġarms": 2265,
      "Ġpuzzle": 2266,
      "Ġhealthy": 2267,
      "Ġsupp": 2268,
      "ward": 2269,
      "Ġfinish": 2270,
      "erly": 2271,
      "Ġalong": 2272,
      "llo": 2273,
      "Ġrocket": 2274,
      "Ġexplain": 2275,
      "ult": 2276,
      "dge": 2277,
      "Ġeasy": 2278,
      "ont": 2279,
      "Ġjewel": 2280,
      "Ġpract": 2281,
      "Ġjelly": 2282,
      "Ġtid": 2283,
      "Ġfake": 2284,
      "Ġcrayons": 2285,
      "Ġwondered": 2286,
      "Ġmaybe": 2287,
      "Ġscar": 2288,
      "Ġship": 2289,
      "Ġnothing": 2290,
      "onest": 2291,
      "Ġemb": 2292,
      "iger": 2293,
      "Ġpool": 2294,
      "Ġlonger": 2295,
      "ĠSt": 2296,
      "Ġanyone": 2297,
      "ually": 2298,
      "Ġfront": 2299,
      "Ġworking": 2300,
      "Ġgives": 2301,
      "irr": 2302,
      "Ġpack": 2303,
      "Ġsuch": 2304,
      "ocked": 2305,
      "ment": 2306,
      "Ġbossy": 2307,
      "Ġtrouble": 2308,
      "Ġsmelled": 2309,
      "Ġsaved": 2310,
      "Ġpin": 2311,
      "rass": 2312,
      "Ġneigh": 2313,
      "St": 2314,
      "arrass": 2315,
      "iting": 2316,
      "Ġhonest": 2317,
      "Ġav": 2318,
      "arge": 2319,
      "Ġembarrass": 2320,
      "Ġlift": 2321,
      "Ġvan": 2322,
      "Ġforgive": 2323,
      "Ġtidy": 2324,
      "Ġweak": 2325,
      "urse": 2326,
      "Ġputs": 2327,
      "unk": 2328,
      "Ġkick": 2329,
      "ĠMum": 2330,
      "Ġmind": 2331,
      "Ġneighb": 2332,
      "Ġplants": 2333,
      "ĠBobby": 2334,
      "Ġsol": 2335,
      "Ġgently": 2336,
      "Ġcozy": 2337,
      "orrow": 2338,
      "Ġprint": 2339,
      "ming": 2340,
      "Ġexplor": 2341,
      "sp": 2342,
      "Ġmistake": 2343,
      "Ġyog": 2344,
      "oc": 2345,
      "oomy": 2346,
      "Ġpointed": 2347,
      "Ġlad": 2348,
      "Ġaf": 2349,
      "Ġstood": 2350,
      "ork": 2351,
      "Ġonto": 2352,
      "Ġjumping": 2353,
      "Ġwaiting": 2354,
      "Ġprince": 2355,
      "Ġcross": 2356,
      "Ġlock": 2357,
      "Ġcheer": 2358,
      "Ġqueen": 2359,
      "ĠWhy": 2360,
      "Ġwing": 2361,
      "ones": 2362,
      "we": 2363,
      "Ġlarge": 2364,
      "Ġlovely": 2365,
      "Ġsur": 2366,
      "Ġret": 2367,
      "Ġdeer": 2368,
      "Ġchew": 2369,
      "Ġcouch": 2370,
      "Ġbal": 2371,
      "ĠMy": 2372,
      "Ġstret": 2373,
      "aughter": 2374,
      "era": 2375,
      "Ġplaces": 2376,
      "Be": 2377,
      "Ġladder": 2378,
      "Ġreturn": 2379,
      "raid": 2380,
      "ĠSomet": 2381,
      "Ġear": 2382,
      "Ġants": 2383,
      "Ġdish": 2384,
      "Ġafraid": 2385,
      "Ġcleaned": 2386,
      "Ġtomorrow": 2387,
      "Ġbuilding": 2388,
      "Ġsandwich": 2389,
      "Ġperson": 2390,
      "ek": 2391,
      "ned": 2392,
      "Ġpretended": 2393,
      "Ġbounce": 2394,
      "Ġwip": 2395,
      "gest": 2396,
      "Ġmatch": 2397,
      "Ġrich": 2398,
      "uce": 2399,
      "Ġpizz": 2400,
      "Ġgather": 2401,
      "Ġsearch": 2402,
      "Ġboring": 2403,
      "ĠTiny": 2404,
      "oman": 2405,
      "Ġteeth": 2406,
      "Ġhum": 2407,
      "aced": 2408,
      "Ġdaughter": 2409,
      "Ġwoman": 2410,
      "Ġscarf": 2411,
      "Ġgoes": 2412,
      "Ġlaw": 2413,
      "My": 2414,
      "Ġstra": 2415,
      "Ġswimming": 2416,
      "Ġfurry": 2417,
      "Ġsplashed": 2418,
      "ĠAl": 2419,
      "Ġpri": 2420,
      "Ġloves": 2421,
      "Ġtrue": 2422,
      "ĠBird": 2423,
      "Ġscreamed": 2424,
      "Ġlazy": 2425,
      "Ġgen": 2426,
      "Ġanswer": 2427,
      "Ġnumber": 2428,
      "Ġeag": 2429,
      "Ġashamed": 2430,
      "Ġpizza": 2431,
      "aw": 2432,
      "Ġappeared": 2433,
      "Ġfear": 2434,
      "Ġnearby": 2435,
      "Ġpowerful": 2436,
      "Ġflag": 2437,
      "Ġhang": 2438,
      "vous": 2439,
      "Ġclown": 2440,
      "Ġchase": 2441,
      "Ġmotor": 2442,
      "Ġwand": 2443,
      "ĠBenny": 2444,
      "ĠTV": 2445,
      "Ġrub": 2446,
      "Ġsuccess": 2447,
      "Ġchocol": 2448,
      "ĠIf": 2449,
      "Ġcreative": 2450,
      "Ġtrust": 2451,
      "Ġwearing": 2452,
      "Ġnoisy": 2453,
      "Ġmatter": 2454,
      "pa": 2455,
      "Ġdig": 2456,
      "ĠDucky": 2457,
      "Ġhello": 2458,
      "Ġner": 2459,
      "Ġtool": 2460,
      "Ġsaf": 2461,
      "ado": 2462,
      "Ġnervous": 2463,
      "elp": 2464,
      "Ġtest": 2465,
      "Ġsmiling": 2466,
      "Ġsold": 2467,
      "icked": 2468,
      "oppy": 2469,
      "osaur": 2470,
      "Ġcircle": 2471,
      "mb": 2472,
      "Now": 2473,
      "ĠHow": 2474,
      "Ġmap": 2475,
      "Ġdrank": 2476,
      "Ġclass": 2477,
      "Ġtries": 2478,
      "Ġchocolate": 2479,
      "ĠPlease": 2480,
      "Ġimpress": 2481,
      "Ġknee": 2482,
      "Ġgener": 2483,
      "Ġdinosaur": 2484,
      "Ġpolite": 2485,
      "Ġmirr": 2486,
      "ĠGo": 2487,
      "Ġballoons": 2488,
      "Ġgold": 2489,
      "Ġrare": 2490,
      "Ġprotect": 2491,
      "Ġcand": 2492,
      "Stop": 2493,
      "ĠDon": 2494,
      "Ġcarried": 2495,
      "ensive": 2496,
      "Ġap": 2497,
      "Ġshadow": 2498,
      "Ġmirror": 2499,
      "Ġbald": 2500,
      "Ġgun": 2501,
      "ina": 2502,
      "Ġexpensive": 2503,
      "Ġreg": 2504,
      "iff": 2505,
      "Ġmysterious": 2506,
      "Ġpump": 2507,
      "Ġnote": 2508,
      "Ġhero": 2509,
      "ĠU": 2510,
      "Ġmarch": 2511,
      "Ġrespect": 2512,
      "Ġhar": 2513,
      "arl": 2514,
      "Ġicy": 2515,
      "Ġweird": 2516,
      "ĠBear": 2517,
      "Ġsnee": 2518,
      "Ġcri": 2519,
      "Ġgate": 2520,
      "Ġsoap": 2521,
      "rag": 2522,
      "ute": 2523,
      "issors": 2524,
      "Ġthese": 2525,
      "Ġpoor": 2526,
      "Ġtowel": 2527,
      "Ġwhale": 2528,
      "Ġfeet": 2529,
      "Ġtape": 2530,
      "Ġdizzy": 2531,
      "itter": 2532,
      "Ġgenerous": 2533,
      "ndpa": 2534,
      "Ġpres": 2535,
      "nic": 2536,
      "Ġdisco": 2537,
      "Help": 2538,
      "ventually": 2539,
      "Ġpicnic": 2540,
      "Ġmic": 2541,
      "Ġlead": 2542,
      "Ġsque": 2543,
      "ĠSometimes": 2544,
      "Ġembarrassed": 2545,
      "Ġjourney": 2546,
      "isp": 2547,
      "Ġsugar": 2548,
      "scape": 2549,
      "Ġboot": 2550,
      "Ġtent": 2551,
      "Ġpeaceful": 2552,
      "Ġfat": 2553,
      "Ġscissors": 2554,
      "Ġtasted": 2555,
      "Ġyelled": 2556,
      "Ġtick": 2557,
      "Ġmel": 2558,
      "Ġbrush": 2559,
      "ĠElla": 2560,
      "Ġdancing": 2561,
      "ness": 2562,
      "Ġglue": 2563,
      "Ġhur": 2564,
      "Ġrough": 2565,
      "Ġclap": 2566,
      "Ġbridge": 2567,
      "ote": 2568,
      "Ġdecor": 2569,
      "Ġcloset": 2570,
      "Ġcrown": 2571,
      "Ġstir": 2572,
      "ĠAndy": 2573,
      "ual": 2574,
      "imp": 2575,
      "owed": 2576,
      "airs": 2577,
      "ume": 2578,
      "Ġcap": 2579,
      "Ġlamp": 2580,
      "Ġvase": 2581,
      "Ġscare": 2582,
      "lebr": 2583,
      "Ġrelie": 2584,
      "lves": 2585,
      "any": 2586,
      "Ġeld": 2587,
      "Ġtele": 2588,
      "Ġcelebr": 2589,
      "Ġgigg": 2590,
      "Ġwhisp": 2591,
      "Ġlog": 2592,
      "Ġblow": 2593,
      "Ġpainted": 2594,
      "Ġsco": 2595,
      "Ġpay": 2596,
      "erries": 2597,
      "Ġwis": 2598,
      "Ġberries": 2599,
      "Ġmixed": 2600,
      "Ġspread": 2601,
      "Ġwouldn": 2602,
      "Ġcage": 2603,
      "Ġbake": 2604,
      "rob": 2605,
      "getable": 2606,
      "Ġmountain": 2607,
      "Ġadm": 2608,
      "Ġdrawing": 2609,
      "Ġbecome": 2610,
      "ĠBr": 2611,
      "Ġfamous": 2612,
      "Ġbean": 2613,
      "Ġknocked": 2614,
      "Ġnorm": 2615,
      "Ġvegetable": 2616,
      "asp": 2617,
      "Ġkicked": 2618,
      "ustr": 2619,
      "Ġshark": 2620,
      "ser": 2621,
      "Ġincred": 2622,
      "Ġlose": 2623,
      "Ġnormal": 2624,
      "Ġwrap": 2625,
      "ĠSome": 2626,
      "ced": 2627,
      "Ġgroup": 2628,
      "Ġthick": 2629,
      "Ġ3": 2630,
      "Ġfine": 2631,
      "Ġglass": 2632,
      "Ġignor": 2633,
      "oph": 2634,
      "Ġclock": 2635,
      "Ġteam": 2636,
      "ĠJenny": 2637,
      "ĠPe": 2638,
      "Ġelderly": 2639,
      "Ġclear": 2640,
      "Ġcorner": 2641,
      "Max": 2642,
      "Ġfrustr": 2643,
      "Ġmighty": 2644,
      "robe": 2645,
      "Ġcone": 2646,
      "Ġincredible": 2647,
      "ighed": 2648,
      "Ġmoms": 2649,
      "Ġbalance": 2650,
      "Ġsock": 2651,
      "Ġspace": 2652,
      "Ġjam": 2653,
      "ragile": 2654,
      "Ġfright": 2655,
      "Ġbranches": 2656,
      "Ġorganized": 2657,
      "Ġroar": 2658,
      "port": 2659,
      "Ġsword": 2660,
      "alous": 2661,
      "Ġguess": 2662,
      "Ġfool": 2663,
      "Ġsell": 2664,
      "Ġfeed": 2665,
      "ĠSammy": 2666,
      "Ġwhich": 2667,
      "Ġhorn": 2668,
      "Mommy": 2669,
      "Ġpresent": 2670,
      "Ġjealous": 2671,
      "Ġyarn": 2672,
      "ony": 2673,
      "Ġfragile": 2674,
      "Ġburn": 2675,
      "Ġunderstood": 2676,
      "Ġmis": 2677,
      "Ġstubb": 2678,
      "Ġter": 2679,
      "Wh": 2680,
      "Ġfrustrated": 2681,
      "ray": 2682,
      "Ġhose": 2683,
      "cient": 2684,
      "Where": 2685,
      "Ġspent": 2686,
      "Ġshoe": 2687,
      "Ġtaught": 2688,
      "Ġstubborn": 2689,
      "Ġtwist": 2690,
      "Ġcreature": 2691,
      "Ġchest": 2692,
      "Ġspoiled": 2693,
      "Ġrelieved": 2694,
      "Ġancient": 2695,
      "ĠTr": 2696,
      "ique": 2697,
      "Ġwake": 2698,
      "Ġfier": 2699,
      "Ġpray": 2700,
      "Ġfierce": 2701,
      "Ġeggs": 2702,
      "Ġcab": 2703,
      "Ġterri": 2704,
      "Ġbarn": 2705,
      "Ġpumpkin": 2706,
      "Ġcomfortable": 2707,
      "Ġord": 2708,
      "Ġfrightened": 2709,
      "orry": 2710,
      "Ġtoug": 2711,
      "Ġunique": 2712,
      "Ġmeasure": 2713,
      "Ġgoat": 2714,
      "Ġwagon": 2715,
      "Ġunus": 2716,
      "Ġbreath": 2717,
      "Ġfoolish": 2718,
      "Ġ'": 2719,
      "Ġuseful": 2720,
      "Ġexploring": 2721,
      "dle": 2722,
      "Ġstraw": 2723,
      "Ġunusual": 2724,
      "Ġdug": 2725,
      "Ġclay": 2726,
      "Ġdiscover": 2727,
      "Ġtomato": 2728,
      "Ġdead": 2729,
      "Ġfinding": 2730,
      "Ġpolice": 2731,
      "Ġwrote": 2732,
      "Ġclum": 2733,
      "ym": 2734,
      "Ġexam": 2735,
      "lace": 2736,
      "ĠRex": 2737,
      "Ġwaves": 2738,
      "Ġsquare": 2739,
      "Ġhears": 2740,
      "Ġcabin": 2741,
      "Ġtells": 2742,
      "Ġnecklace": 2743,
      "Ġdull": 2744,
      "Ġclumsy": 2745,
      "Ġtough": 2746,
      "Ġbubbles": 2747,
      "Ġnosy": 2748,
      "kn": 2749,
      "Ġsearched": 2750,
      "Ġwashed": 2751,
      "Ġbathroom": 2752,
      "Ġpaws": 2753,
      "ĠWill": 2754,
      "bby": 2755,
      "ond": 2756,
      "unn": 2757,
      "anged": 2758,
      "Ġboard": 2759,
      "known": 2760,
      "fic": 2761,
      "Ġasking": 2762,
      "Ġcrazy": 2763,
      "Ġthankful": 2764,
      "Ġbitter": 2765,
      "Ġsunf": 2766,
      "yal": 2767,
      "Ġpir": 2768,
      "berry": 2769,
      "Ġind": 2770,
      "alk": 2771,
      "Ġdiffic": 2772,
      "Ġrose": 2773,
      "cil": 2774,
      "Ġswan": 2775,
      "Ġbloom": 2776,
      "Ġunknown": 2777,
      "Ġcovered": 2778,
      "Ġdifficult": 2779,
      "Ġadd": 2780,
      "Ġpencil": 2781,
      "Ġfinger": 2782,
      "Ġham": 2783,
      "Ġhoop": 2784,
      "Ġjet": 2785,
      "Ġwitch": 2786,
      "Ġdrop": 2787,
      "Ġchicken": 2788,
      "Ġgloomy": 2789,
      "apped": 2790,
      "Ġloyal": 2791,
      "als": 2792,
      "Ġwealthy": 2793,
      "com": 2794,
      "light": 2795,
      "ĠMany": 2796,
      "Ġunl": 2797,
      "Ġcats": 2798,
      "Ġending": 2799,
      "Ġguit": 2800,
      "bled": 2801,
      "Here": 2802,
      "shine": 2803,
      "Ġdove": 2804,
      "Ġsort": 2805,
      "Ġjoined": 2806,
      "Ġcher": 2807,
      "anut": 2808,
      "Ġmov": 2809,
      "Ġterrible": 2810,
      "Ġyours": 2811,
      "iant": 2812,
      "Ġsalad": 2813,
      "Ġnuts": 2814,
      "Ġrat": 2815,
      "Ġlif": 2816,
      "ground": 2817,
      "Ġtiger": 2818,
      "Ġpotato": 2819,
      "Ġmask": 2820,
      "xible": 2821,
      "selves": 2822,
      "Ġvalue": 2823,
      "Ġchanged": 2824,
      "ĠBrown": 2825,
      "Ġmoving": 2826,
      "Ġexciting": 2827,
      "ormous": 2828,
      "Ġbody": 2829,
      "ĠInstead": 2830,
      "Ġtoast": 2831,
      "Ġrecord": 2832,
      "erp": 2833,
      "Ġzip": 2834,
      "Ġcheap": 2835,
      "Ġdisg": 2836,
      "Ġguitar": 2837,
      "irsty": 2838,
      "Ġknowing": 2839,
      "Ġadventur": 2840,
      "Ġyourself": 2841,
      "Ġenormous": 2842,
      "Ġhairy": 2843,
      "Ġshoot": 2844,
      "Ġbored": 2845,
      "Ġpepper": 2846,
      "Ġremind": 2847,
      "ory": 2848,
      "Ġacorn": 2849,
      "land": 2850,
      "Ġadventurous": 2851,
      "Ġsunshine": 2852,
      "Ġsmaller": 2853,
      "Ġstuff": 2854,
      "Ġhats": 2855,
      "Ġsolve": 2856,
      "Ġflexible": 2857,
      "Ġcost": 2858,
      "rilliant": 2859,
      "Ġknife": 2860,
      "Ġperform": 2861,
      "Ġsnacks": 2862,
      "Ġnods": 2863,
      "Ġshore": 2864,
      "Ġbrilliant": 2865,
      "Ġthirsty": 2866,
      "Ġdelicate": 2867,
      "ĠNo": 2868,
      "Ġfrown": 2869,
      "Ġdisgust": 2870,
      "Ġcollect": 2871,
      "Ġstri": 2872,
      "Ġseeds": 2873,
      "Ġcounted": 2874,
      "Ġasleep": 2875,
      "Ġbanana": 2876,
      "reen": 2877,
      "Ġmailbox": 2878,
      "iness": 2879,
      "Ġtrick": 2880,
      "Ġdough": 2881,
      "Ġneighbor": 2882,
      "Ben": 2883,
      "ungle": 2884,
      "Ġheal": 2885,
      "ilt": 2886,
      "live": 2887,
      "Who": 2888,
      "ĠLittle": 2889,
      "Ġstage": 2890,
      "ident": 2891,
      "Ġmarket": 2892,
      "Ġcube": 2893,
      "Ġstat": 2894,
      "Ġjungle": 2895,
      "Ġsquee": 2896,
      "mbre": 2897,
      "Ġexplained": 2898,
      "ates": 2899,
      "Ġumbre": 2900,
      "Me": 2901,
      "Ġdisgusting": 2902,
      "Ġlab": 2903,
      "Ġjolly": 2904,
      "und": 2905,
      "inal": 2906,
      "Ġfridge": 2907,
      "Ġcrane": 2908,
      "corn": 2909,
      "Ġsuit": 2910,
      "Ġflash": 2911,
      "pid": 2912,
      "iddle": 2913,
      "Ġsunflower": 2914,
      "Ġtimes": 2915,
      "ict": 2916,
      "Ġcaterp": 2917,
      "Ġcaterpill": 2918,
      "Ġrelax": 2919,
      "Ġshiver": 2920,
      "Ġfour": 2921,
      "Ġisland": 2922,
      "iginal": 2923,
      "Ġharm": 2924,
      "ying": 2925,
      "Ġstupid": 2926,
      "Ġmedic": 2927,
      "Ġcomb": 2928,
      "Ġgoose": 2929,
      "Ġcro": 2930,
      "edient": 2931,
      "ĠJake": 2932,
      "Ġstove": 2933,
      "If": 2934,
      "Are": 2935,
      "Ġindepend": 2936,
      "most": 2937,
      "Ġspring": 2938,
      "Ġgem": 2939,
      "Ġbatter": 2940,
      "Ġsighed": 2941,
      "Ġvegetables": 2942,
      "Ġstones": 2943,
      "ĠYour": 2944,
      "pes": 2945,
      "Ġshine": 2946,
      "Ġmedicine": 2947,
      "Ġdepend": 2948,
      "Ġrug": 2949,
      "Ġcareless": 2950,
      "Ġoriginal": 2951,
      "Ġstamp": 2952,
      "Ġgar": 2953,
      "Ġcries": 2954,
      "gu": 2955,
      "Ġcarrots": 2956,
      "Ġscr": 2957,
      "Ġsuccessful": 2958,
      "Ġsauce": 2959,
      "Ġjeep": 2960,
      "Ġpopcorn": 2961,
      "Ġmeal": 2962,
      "Ġobedient": 2963,
      "Ġalmost": 2964,
      "Ġmiddle": 2965,
      "Ġmagn": 2966,
      "Ġstudy": 2967,
      "Ġindependent": 2968,
      "ĠEmily": 2969,
      "Ġfearful": 2970,
      "Ġjack": 2971,
      "met": 2972,
      "inky": 2973,
      "Sorry": 2974,
      "Ġescape": 2975,
      "Ġcaterpillar": 2976,
      "Ġserious": 2977,
      "Ġpeanut": 2978,
      "Ġbedroom": 2979,
      "Ġeager": 2980,
      "aken": 2981,
      "Ġgets": 2982,
      "Ġparrot": 2983,
      "Ġstatue": 2984,
      "Ġhelmet": 2985,
      "Ġpebb": 2986,
      "Ġfountain": 2987,
      "ĠToday": 2988,
      "Ġang": 2989,
      "Ġraven": 2990,
      "Ġpasta": 2991,
      "Ġumbrella": 2992,
      "Ġcompet": 2993,
      "arth": 2994,
      "Ġjacket": 2995,
      "Ġbelonged": 2996,
      "Ġdest": 2997,
      "Ġfilthy": 2998,
      "Ġdesign": 2999,
      "Ġborrow": 3000,
      "Ġcam": 3001,
      "erable": 3002,
      "Ġhouses": 3003,
      "Ġbelt": 3004,
      "Ġprize": 3005,
      "Ġhay": 3006,
      "Ġbrace": 3007,
      "Ġstanding": 3008,
      "Ġmiserable": 3009,
      "Ġbracelet": 3010,
      "Ġraced": 3011,
      "Ġtaken": 3012,
      "ages": 3013,
      "Ġfork": 3014,
      "Ġcrayon": 3015,
      "Ġpainting": 3016,
      "io": 3017,
      "Ġtriang": 3018,
      "Ġimpressive": 3019,
      "Ġchoose": 3020,
      "Ġfig": 3021,
      "Ġpoint": 3022,
      "Ġtied": 3023,
      "iable": 3024,
      "Ġspotted": 3025,
      "Ġlifted": 3026,
      "Ġslipped": 3027,
      "ours": 3028,
      "Ġtank": 3029,
      "Ġthoughtful": 3030,
      "Ġdependable": 3031,
      "Ġsteal": 3032,
      "Ġgarage": 3033,
      "Ġbuilt": 3034,
      "Ġer": 3035,
      "ipe": 3036,
      "ĠSn": 3037,
      "Ġmole": 3038,
      "Ġcrawled": 3039,
      "Ġscale": 3040,
      "Ġboats": 3041,
      "Ġpant": 3042,
      "Ġpian": 3043,
      "Ġhammer": 3044,
      "Ġbottom": 3045,
      "ĠTrue": 3046,
      "Ġcheerful": 3047,
      "lph": 3048,
      "Ġusing": 3049,
      "ĠPeter": 3050,
      "Ġsmoke": 3051,
      "Ġpicks": 3052,
      "Sam": 3053,
      "Ġmoder": 3054,
      "Ġshows": 3055,
      "berries": 3056,
      "rn": 3057,
      "Ġpiano": 3058,
      "Ġmagnet": 3059,
      "dile": 3060,
      "codile": 3061,
      "Ġhurts": 3062,
      "inary": 3063,
      "Ġref": 3064,
      "Ġcrack": 3065,
      "Ġeng": 3066,
      "oin": 3067,
      "Ġaunt": 3068,
      "Ġmelon": 3069,
      "ĠEven": 3070,
      "Ġwaff": 3071,
      "Ġmodern": 3072,
      "Ġdolph": 3073,
      "unnel": 3074,
      "cream": 3075,
      "pack": 3076,
      "Ġtunnel": 3077,
      "Ġarrow": 3078,
      "Ġmush": 3079,
      "Ġreliable": 3080,
      "Ġhopping": 3081,
      "Ġmushroom": 3082,
      "Ġjug": 3083,
      "Ġsquash": 3084,
      "Ġgum": 3085,
      "Ġsink": 3086,
      "Ġmovie": 3087,
      "Ġtax": 3088,
      "Ġflute": 3089,
      "Ġbeet": 3090,
      "Ġlean": 3091,
      "iv": 3092,
      "Ġpopular": 3093,
      "icop": 3094,
      "icopter": 3095,
      "Ġcryst": 3096,
      "Ġones": 3097,
      "Ġsil": 3098,
      "Ġcompetit": 3099,
      "Ġhelicopter": 3100,
      "aser": 3101,
      "Ġneeds": 3102,
      "ipop": 3103,
      "llipop": 3104,
      "Ġcrocodile": 3105,
      "Ġliz": 3106,
      "Ġpress": 3107,
      "Ġtroubled": 3108,
      "Ġpige": 3109,
      "Ġlocked": 3110,
      "Ġtricks": 3111,
      "Ġlollipop": 3112,
      "Ġplayful": 3113,
      "Ġhumble": 3114,
      "Ġtaxi": 3115,
      "Ġkissed": 3116,
      "Ġlow": 3117,
      "appy": 3118,
      "comfortable": 3119,
      "amond": 3120,
      "Ġrid": 3121,
      "Ġuncomfortable": 3122,
      "host": 3123,
      "Ġwander": 3124,
      "atch": 3125,
      "Ġangel": 3126,
      "edy": 3127,
      "cles": 3128,
      "Ġtorn": 3129,
      "Ġgrace": 3130,
      "Ġanx": 3131,
      "Ġwrapped": 3132,
      "Ġmuff": 3133,
      "Ġtwig": 3134,
      "Ġpants": 3135,
      "Ġdisappoin": 3136,
      "Ġhelps": 3137,
      "Ġdiamond": 3138,
      "Ġcamera": 3139,
      "oto": 3140,
      "Ġanxious": 3141,
      "Ġghost": 3142,
      "atter": 3143,
      "Ġtears": 3144,
      "Ġruined": 3145,
      "How": 3146,
      "ĠSus": 3147,
      "cident": 3148,
      "ilty": 3149,
      "Ġquar": 3150,
      "aff": 3151,
      "Ġfis": 3152,
      "opl": 3153,
      "eropl": 3154,
      "Ġenv": 3155,
      "Ġguilty": 3156,
      "Ġbull": 3157,
      "Ġaeropl": 3158,
      "Ġhelpless": 3159,
      "Ġhappiness": 3160,
      "Ġlizard": 3161,
      "Ġboys": 3162,
      "cut": 3163,
      "Ġcere": 3164,
      "Ġwalks": 3165,
      "cean": 3166,
      "Ġpassed": 3167,
      "tt": 3168,
      "Ġmeant": 3169,
      "Ġocean": 3170,
      "Ġfluffy": 3171,
      "Ġwire": 3172,
      "Ġnail": 3173,
      "Ġdeaf": 3174,
      "zed": 3175,
      "Ġstretch": 3176,
      "Ġcact": 3177,
      "Ġcandle": 3178,
      "Ġbeetle": 3179,
      "Ġmop": 3180,
      "Ġharmless": 3181,
      "umpet": 3182,
      "Ġordinary": 3183,
      "Ġanswered": 3184,
      "Ġcop": 3185,
      "Ġcollar": 3186,
      "Ġbees": 3187,
      "Ġtire": 3188,
      "Ġshape": 3189,
      "Ġquarrel": 3190,
      "Ġradio": 3191,
      "Ġflashlight": 3192,
      "Ġcrystal": 3193,
      "Ġharder": 3194,
      "Ġpoured": 3195,
      "Ġtrumpet": 3196,
      "Ġengine": 3197,
      "Ġpersist": 3198,
      "Ġhunt": 3199,
      "Ġtooth": 3200,
      "Ġcereal": 3201,
      "Ġinvited": 3202,
      "Ġcomput": 3203,
      "Ġtag": 3204,
      "Ġoffice": 3205,
      "Ġmelt": 3206,
      "Ġspill": 3207,
      "Ġcharm": 3208,
      "coa": 3209,
      "Ġlit": 3210,
      "Ġscoot": 3211,
      "Ġcomet": 3212,
      "Ġtriangle": 3213,
      "ief": 3214,
      "Ġmug": 3215,
      "Ġrep": 3216,
      "ube": 3217,
      "Ġyogurt": 3218,
      "Ġspend": 3219,
      "Ġcompass": 3220,
      "Ġaccident": 3221,
      "Ġshade": 3222,
      "ĠPipp": 3223,
      "hett": 3224,
      "aghett": 3225,
      "aghetti": 3226,
      "Ġdisappointed": 3227,
      "Ġlicked": 3228,
      "Ġcactus": 3229,
      "Ġpale": 3230,
      "Ġcush": 3231,
      "Ġfigure": 3232,
      "Ġgiving": 3233,
      "Ġavoc": 3234,
      "Ġregular": 3235,
      "Ġsheet": 3236,
      "Ġwhispered": 3237,
      "ĠPoppy": 3238,
      "aze": 3239,
      "uth": 3240,
      "ellig": 3241,
      "ĠDan": 3242,
      "Ġcreate": 3243,
      "Ġbarber": 3244,
      "Ġintellig": 3245,
      "Ġpipe": 3246,
      "Ġrode": 3247,
      "Ġroof": 3248,
      "Ġthread": 3249,
      "ither": 3250,
      "Ġlibr": 3251,
      "Ġload": 3252,
      "Ġvi": 3253,
      "Ġgifted": 3254,
      "ccol": 3255,
      "Ġpracticed": 3256,
      "Ġdelight": 3257,
      "ccoli": 3258,
      "Ġharsh": 3259,
      "Ġdust": 3260,
      "Ġpow": 3261,
      "asses": 3262,
      "Ġbicy": 3263,
      "azz": 3264,
      "Ġspaghetti": 3265,
      "Ġcompassion": 3266,
      "Ġsailed": 3267,
      "urkey": 3268,
      "Ġforward": 3269,
      "ubby": 3270,
      "Ġpersistent": 3271,
      "Ġspeed": 3272,
      "Ġmitten": 3273,
      "Ġpro": 3274,
      "Ġcocoa": 3275,
      "Ġenvel": 3276,
      "ĠBuzz": 3277,
      "Ġquestions": 3278,
      "Ġcomputer": 3279,
      "Ġcoo": 3280,
      "Ġfeathers": 3281,
      "Ġglove": 3282,
      "ging": 3283,
      "Ġrice": 3284,
      "Ġshrimp": 3285,
      "Ġdesk": 3286,
      "Ġstream": 3287,
      "Ġinse": 3288,
      "Ġpigeon": 3289,
      "Ġcharming": 3290,
      "hip": 3291,
      "Ġears": 3292,
      "Ġcarp": 3293,
      "lcan": 3294,
      "Ġenvious": 3295,
      "Ġknot": 3296,
      "Ġturkey": 3297,
      "Ġstronger": 3298,
      "omes": 3299,
      "Ġcoins": 3300,
      "Ġtap": 3301,
      "Ġraft": 3302,
      "lcano": 3303,
      "weet": 3304,
      "Ġtrap": 3305,
      "ĠPolly": 3306,
      "umbers": 3307,
      "Ġaeroplane": 3308,
      "Ġtrunk": 3309,
      "Ġwheat": 3310,
      "Ġboxes": 3311,
      "Ġchubby": 3312,
      "Ġcarpet": 3313,
      "Ġrestless": 3314,
      "Ġintelligent": 3315,
      "Ġtube": 3316,
      "Ġspun": 3317,
      "Ġdreams": 3318,
      "Ġhalf": 3319,
      "Ġfriendship": 3320,
      "ulif": 3321,
      "olin": 3322,
      "ĠMummy": 3323,
      "Ġloop": 3324,
      "Ġcrawl": 3325,
      "Ġbroccoli": 3326,
      "Ġonion": 3327,
      "Ġweek": 3328,
      "Ġdeliver": 3329,
      "Ġacce": 3330,
      "Ġvide": 3331,
      "Ġvolcano": 3332,
      "Ġsle": 3333,
      "Ġtrack": 3334,
      "Ġbri": 3335,
      "Ġcaulif": 3336,
      "Ġvine": 3337,
      "ye": 3338,
      "Ġticket": 3339,
      "Ġthief": 3340,
      "essie": 3341,
      "cycle": 3342,
      "Ġlouder": 3343,
      "Ġinsect": 3344,
      "Ġnumbers": 3345,
      "asing": 3346,
      "Ġyaw": 3347,
      "Ġhaircut": 3348,
      "ital": 3349,
      "Ġsleeping": 3350,
      "ĠAlice": 3351,
      "Ġmill": 3352,
      "Ġalert": 3353,
      "Ġeventually": 3354,
      "Ġexcite": 3355,
      "Ġpebble": 3356,
      "Ġhosp": 3357,
      "Ġattract": 3358,
      "Ġplanet": 3359,
      "anger": 3360,
      "Ġuniver": 3361,
      "isted": 3362,
      "ulu": 3363,
      "Ġeraser": 3364,
      "Ġhospital": 3365,
      "Ġreturned": 3366,
      "Ġdestro": 3367,
      "Ġgraceful": 3368,
      "Ġhappening": 3369,
      "ĠBet": 3370,
      "ache": 3371,
      "ĠOK": 3372,
      "Ġdecide": 3373,
      "Ġlearning": 3374,
      "Ġscreen": 3375,
      "rework": 3376,
      "Ġnicely": 3377,
      "Ġleop": 3378,
      "Ġcauliflower": 3379,
      "Ġcompetitive": 3380,
      "Ġpoem": 3381,
      "Ġcelebrate": 3382,
      "ĠPet": 3383,
      "acht": 3384,
      "Ġcurt": 3385,
      "Ġpeach": 3386,
      "Ġsoldier": 3387,
      "Ġsaus": 3388,
      "Ġparade": 3389,
      "atient": 3390,
      "Ġattractive": 3391,
      "Ġcurtain": 3392,
      "Ġbase": 3393,
      "Ġdolphin": 3394,
      "Ġviolin": 3395,
      "Ġways": 3396,
      "Ġtravel": 3397,
      "ats": 3398,
      "Ġrod": 3399,
      "Ġignorant": 3400,
      "ulb": 3401,
      "Ġwheels": 3402,
      "Ġyacht": 3403,
      "Ġscatter": 3404,
      "Ġdeter": 3405,
      "Ġcompassionate": 3406,
      "Ġbarrel": 3407,
      "Ġenvelope": 3408,
      "Ġbubble": 3409,
      "Ġlying": 3410,
      "Ġfirework": 3411,
      "Go": 3412,
      "ĠLulu": 3413,
      "Ġquestion": 3414,
      "zzy": 3415,
      "Ġscooter": 3416,
      "Ġdeterm": 3417,
      "Ġrag": 3418,
      "Ġthu": 3419,
      "Ġbicycle": 3420,
      "elery": 3421,
      "Ġneedle": 3422,
      "Ġjudge": 3423,
      "Ġbulb": 3424,
      "Ġleopard": 3425,
      "Ġtem": 3426,
      "Ġpony": 3427,
      "Ġcricket": 3428,
      "Ġhomes": 3429,
      "Ġorder": 3430,
      "Ġador": 3431,
      "tern": 3432,
      "Ġtruth": 3433,
      "Ġhook": 3434,
      "dom": 3435,
      "Ġrubbed": 3436,
      "igator": 3437,
      "Ġbushes": 3438,
      "Ġuncle": 3439,
      "ĠMiss": 3440,
      "Ġcushion": 3441,
      "Ġspell": 3442,
      "Ġgrown": 3443,
      "Sue": 3444,
      "Ġcooked": 3445,
      "Ġadorable": 3446,
      "Ġchalk": 3447,
      "Ġsoar": 3448,
      "Ġpurse": 3449,
      "Ġskin": 3450,
      "Ġthemselves": 3451,
      "Ġimpatient": 3452,
      "Ġcelery": 3453,
      "Ġtray": 3454,
      "ĠSh": 3455,
      "Ġshells": 3456,
      "Ġpengu": 3457,
      "Ġsniff": 3458,
      "Ġprun": 3459,
      "Ġwalls": 3460,
      "Ġseal": 3461,
      "ĠPete": 3462,
      "Ġlively": 3463,
      "Ġcase": 3464,
      "Ġalligator": 3465,
      "Ġdistant": 3466,
      "Ġradish": 3467,
      "Ġsaying": 3468,
      "Ġspeak": 3469,
      "Ġmotorcycle": 3470,
      "ĠTina": 3471,
      "Ġmeat": 3472,
      "Ġsend": 3473,
      "ĠBirdy": 3474,
      "Ġspinning": 3475,
      "Ġforth": 3476,
      "illa": 3477,
      "Ġcounting": 3478,
      "Ġenth": 3479,
      "Ġbounced": 3480,
      "Ġchain": 3481,
      "Ġed": 3482,
      "Ġcleaning": 3483,
      "ebra": 3484,
      "Ġfilm": 3485,
      "Ġslept": 3486,
      "Ġpit": 3487,
      "Ġsurf": 3488,
      "Ġmarry": 3489,
      "usia": 3490,
      "Ġwallet": 3491,
      "Ġenthusia": 3492,
      "Ġmetal": 3493,
      "urb": 3494,
      "ebook": 3495,
      "Ġbin": 3496,
      "Ġnotebook": 3497,
      "Ġskip": 3498,
      "Ġwiped": 3499,
      "ision": 3500,
      "chair": 3501,
      "Ġbiggest": 3502,
      "Ġimpro": 3503,
      "Ġavocado": 3504,
      "Ġbehave": 3505,
      "Ġdestroy": 3506,
      "vator": 3507,
      "ĠFo": 3508,
      "Ġbandage": 3509,
      "Ġlaughs": 3510,
      "Ġsteak": 3511,
      "Ġpattern": 3512,
      "Ġpost": 3513,
      "Ġelevator": 3514,
      "Ġdive": 3515,
      "Ġshut": 3516,
      "Ġskipped": 3517,
      "Ġunlock": 3518,
      "Ġdiary": 3519,
      "dest": 3520,
      "ject": 3521,
      "Ġmint": 3522,
      "Ġzebra": 3523,
      "Ġbags": 3524,
      "ating": 3525,
      "Ġarmchair": 3526,
      "rage": 3527,
      "aged": 3528,
      "Ġdisturb": 3529,
      "Ġoy": 3530,
      "Ġpole": 3531,
      "Ġshowing": 3532,
      "Ġclub": 3533,
      "Ġgathered": 3534,
      "Ġnurse": 3535,
      "bul": 3536,
      "Ġearth": 3537,
      "Ġenc": 3538,
      "Sp": 3539,
      "Ġstranger": 3540,
      "Ġsweater": 3541,
      "Ġjellyfish": 3542,
      "Ġscrew": 3543,
      "ĠSusie": 3544,
      "ĠRob": 3545,
      "Ġtemp": 3546,
      "Ġcompl": 3547,
      "Ġmixer": 3548,
      "Give": 3549,
      "Ġskull": 3550,
      "Ġlime": 3551,
      "Ġbump": 3552,
      "bulance": 3553,
      "ĠCl": 3554,
      "Ġambulance": 3555,
      "nam": 3556,
      "Ġfather": 3557,
      "Ġjournal": 3558,
      "Ġloudly": 3559,
      "ito": 3560,
      "Ġfolder": 3561,
      "Ġshield": 3562,
      "Ġlibrary": 3563,
      "Ġbuttons": 3564,
      "Ġplayground": 3565,
      "Ġtrucks": 3566,
      "Ġink": 3567,
      "Ġlights": 3568,
      "Ġtummy": 3569,
      "Ġpointing": 3570,
      "Ġcity": 3571,
      "Ġdecorate": 3572,
      "Ġstation": 3573,
      "irit": 3574,
      "Ġprep": 3575,
      "Ġfalls": 3576,
      "quito": 3577,
      "Ġfu": 3578,
      "ention": 3579,
      "nger": 3580,
      "ĠRose": 3581,
      "Ġherb": 3582,
      "Ġornam": 3583,
      "Ġornament": 3584,
      "Ġmodest": 3585,
      "Ġguard": 3586,
      "lies": 3587,
      "Ġmos": 3588,
      "Ġknows": 3589,
      "Ġcord": 3590,
      "Ġpolish": 3591,
      "Ġmarble": 3592,
      "Ġmosquito": 3593,
      "umbled": 3594,
      "Ġsalt": 3595,
      "Ġattic": 3596,
      "Ġwhenever": 3597,
      "Ġvest": 3598,
      "ctop": 3599,
      "Ġresc": 3600,
      "Ġyet": 3601,
      "Ġple": 3602,
      "Ġdisappeared": 3603,
      "oby": 3604,
      "ceed": 3605,
      "Ġonce": 3606,
      "Ġstrawberry": 3607,
      "Ġkay": 3608,
      "Ġbrothers": 3609,
      "Ġitch": 3610,
      "Ġpirate": 3611,
      "Ġfootball": 3612,
      "Ġsplit": 3613,
      "kele": 3614,
      "keleton": 3615,
      "Ġhipp": 3616,
      "Ġaut": 3617,
      "Ġled": 3618,
      "uring": 3619,
      "ctopus": 3620,
      "Ġdriving": 3621,
      "Ġcable": 3622,
      "Ġsupport": 3623,
      "Ġcalling": 3624,
      "Ġcupboard": 3625,
      "aky": 3626,
      "ĠSunny": 3627,
      "ushed": 3628,
      "Ġwishes": 3629,
      "Ġcomplet": 3630,
      "Ġtripped": 3631,
      "ĠTweet": 3632,
      "ĠPeople": 3633,
      "Ġroot": 3634,
      "Ġkayak": 3635,
      "Ġoctopus": 3636,
      "obile": 3637,
      "Ġadded": 3638,
      "ĠZoom": 3639,
      "Ġedge": 3640,
      "Ġmild": 3641,
      "stic": 3642,
      "Ġdetermined": 3643,
      "Ġsucceed": 3644,
      "?\".": 3645,
      "Ġreading": 3646,
      "omobile": 3647,
      "Ġcoal": 3648,
      "gl": 3649,
      "utes": 3650,
      "Ġsuggest": 3651,
      "par": 3652,
      "Well": 3653,
      "Ġstack": 3654,
      "Ġthunder": 3655,
      "Ġkindness": 3656,
      "Ġautomobile": 3657,
      "Ġcomplain": 3658,
      "Ġenthusiastic": 3659,
      "Ġsneeze": 3660,
      "Ġcartoon": 3661,
      "Ġyoga": 3662,
      "Ġgrowl": 3663,
      "htub": 3664,
      "Ġflea": 3665,
      "Ġmeadow": 3666,
      "Ġdrawer": 3667,
      "Ġbathtub": 3668,
      "Ġribb": 3669,
      "ophone": 3670,
      "Ġhall": 3671,
      "Ġgolf": 3672,
      "Ġmeans": 3673,
      "Ġskeleton": 3674,
      "ĠBetty": 3675,
      "Ġmath": 3676,
      "Ġveil": 3677,
      "Ġhunter": 3678,
      "Re": 3679,
      "Ġgor": 3680,
      "Ġflame": 3681,
      "Ġpoke": 3682,
      "Ġvideo": 3683,
      "Ġchess": 3684,
      "Ġcups": 3685,
      "Ġglowing": 3686,
      "Ġmatt": 3687,
      "Ġoyster": 3688,
      "work": 3689,
      "Ġpenny": 3690,
      "Ġspear": 3691,
      "Ġitself": 3692,
      "essert": 3693,
      "Ġdrawings": 3694,
      "Ġhippo": 3695,
      "Ġrepair": 3696,
      "Ġswitch": 3697,
      "glasses": 3698,
      "Ġsunglasses": 3699,
      "Ġteleph": 3700,
      "Ġcostume": 3701,
      "Ġdessert": 3702,
      "Ġzipp": 3703,
      ",âĢĿ": 3704,
      "Ġrepe": 3705,
      "Ġmuffin": 3706,
      "Ġarg": 3707,
      "Ġpastry": 3708,
      "Ġpun": 3709,
      "Ġrolling": 3710,
      "Ġminutes": 3711,
      "Ġmakeup": 3712,
      "Ġpacked": 3713,
      "iron": 3714,
      "ric": 3715,
      "Ġwaffle": 3716,
      "case": 3717,
      "Ġhandle": 3718,
      "Ġpear": 3719,
      "Ġmaze": 3720,
      "Ġtelephone": 3721,
      "ĠToby": 3722,
      "ophy": 3723,
      "Ġpine": 3724,
      "ait": 3725,
      "ĠPippin": 3726,
      "Ġgear": 3727,
      "Ġhedge": 3728,
      "Ġmattress": 3729,
      "Ġpackage": 3730,
      "aving": 3731,
      "Ġshocked": 3732,
      "ines": 3733,
      "Ġtrophy": 3734,
      "Ġpowder": 3735,
      "Ġknight": 3736,
      "Ġcob": 3737,
      "ĠBessie": 3738,
      "Ġmissile": 3739,
      "Ġframe": 3740,
      "Ġmanaged": 3741,
      "Ġencou": 3742,
      "Ġwife": 3743,
      "Spot": 3744,
      "Ġok": 3745,
      "Ġsepar": 3746,
      "web": 3747,
      "Ġstairs": 3748,
      "Ġrot": 3749,
      "Ġcamp": 3750,
      "time": 3751,
      "rophone": 3752,
      "urch": 3753,
      "Ġmagaz": 3754,
      "Ġstrugg": 3755,
      "Ġcolour": 3756,
      "Ġgrapes": 3757,
      "old": 3758,
      "Ġfile": 3759,
      "ĠZip": 3760,
      "head": 3761,
      "Ġbasketball": 3762,
      "Bye": 3763,
      "per": 3764,
      "Ġcobweb": 3765,
      "Ġperm": 3766,
      "Ġwool": 3767,
      "Ġmicrophone": 3768,
      "esday": 3769,
      "Ġeye": 3770,
      "Ġleash": 3771,
      "Ġgasp": 3772,
      "iew": 3773,
      "keep": 3774,
      "Ġweep": 3775,
      "ĠSpike": 3776,
      "Ġbarking": 3777,
      "ature": 3778,
      "Ġsafely": 3779,
      "Ġtear": 3780,
      "ĠSnow": 3781,
      "Ġview": 3782,
      "Ġslides": 3783,
      "offe": 3784,
      "Ġsteps": 3785,
      "istol": 3786,
      "offee": 3787,
      "Ġbananas": 3788,
      "Ġstaff": 3789,
      "Ġspirit": 3790,
      "Ġtask": 3791,
      "Ġgiggled": 3792,
      "Ġhoc": 3793,
      "ĠLook": 3794,
      "Ġhockey": 3795,
      "Ġvend": 3796,
      "Ġthose": 3797,
      "Ġgorilla": 3798,
      "Ġcooler": 3799,
      "was": 3800,
      "cing": 3801,
      "Ġearly": 3802,
      "Ġmarched": 3803,
      "rosc": 3804,
      "washer": 3805,
      "Ġflour": 3806,
      "Ġhotel": 3807,
      "Ġsailor": 3808,
      "ĠMar": 3809,
      "hic": 3810,
      "Ġphoto": 3811,
      "roscope": 3812,
      "Ġvehic": 3813,
      "ilot": 3814,
      "Ġoft": 3815,
      "Ġoften": 3816,
      "Ġchurch": 3817,
      "Ġcooking": 3818,
      "Ġremain": 3819,
      "ĠNext": 3820,
      "hin": 3821,
      "Ġfive": 3822,
      "ĠMrs": 3823,
      "otter": 3824,
      "Ġsausage": 3825,
      "Ġten": 3826,
      "Ġtools": 3827,
      "See": 3828,
      "Ġmedal": 3829,
      "Ġeither": 3830,
      "Ġfireman": 3831,
      "chor": 3832,
      "Ġgrandpa": 3833,
      "Ġotter": 3834,
      "Ġbaseball": 3835,
      "Ġpistol": 3836,
      "Ġpretending": 3837,
      "Ġdishwasher": 3838,
      "Ġrever": 3839,
      "Ġorganize": 3840,
      "Ġpee": 3841,
      "Ġvendor": 3842,
      "Ġknock": 3843,
      "Ġsight": 3844,
      "Ġgrill": 3845,
      "Ġtemple": 3846,
      "Ġbattery": 3847,
      "Ġthinking": 3848,
      "Ġopens": 3849,
      "Ġow": 3850,
      "ĠKim": 3851,
      "ĠGrandpa": 3852,
      "Ġrealised": 3853,
      "Ġiron": 3854,
      "Ġlaser": 3855,
      "Ġsne": 3856,
      "Ġoil": 3857,
      "Ġsandbox": 3858,
      "ĠUn": 3859,
      "Ġpatch": 3860,
      "Ġhours": 3861,
      "Ġrise": 3862,
      "Ġwhip": 3863,
      "ne": 3864,
      "'d": 3865,
      "ctory": 3866,
      "ĠGive": 3867,
      "Ġanchor": 3868,
      "Ġtrash": 3869,
      "Ġskirt": 3870,
      "ense": 3871,
      "Ġshort": 3872,
      "ney": 3873,
      "Ġrhin": 3874,
      "Ġfactory": 3875,
      "seum": 3876,
      "Ġmay": 3877,
      "Ġward": 3878,
      "ately": 3879,
      "Ġcardboard": 3880,
      "ugged": 3881,
      "Ġlotion": 3882,
      "Ġmessage": 3883,
      "Ġvalu": 3884,
      "Ġwardrobe": 3885,
      "Ġcell": 3886,
      "Ġmuseum": 3887,
      "apers": 3888,
      "Ġur": 3889,
      "ination": 3890,
      "Ġhanging": 3891,
      "eer": 3892,
      "ucet": 3893,
      "ailable": 3894,
      "Ġhive": 3895,
      "Ġtowers": 3896,
      "keeper": 3897,
      "Ġblackboard": 3898,
      "Ġmem": 3899,
      "Ġexcitement": 3900,
      "Ġcoffee": 3901,
      "Ġpilot": 3902,
      "ready": 3903,
      "Ġnapkin": 3904,
      "Ġpenguin": 3905,
      "Ġcheck": 3906,
      "loo": 3907,
      "ron": 3908,
      "Ġreward": 3909,
      "Ġquit": 3910,
      "Ġcane": 3911,
      "Ġpicking": 3912,
      "place": 3913,
      "azor": 3914,
      "Ġig": 3915,
      "Ġfaucet": 3916,
      "Ġpassport": 3917,
      "Ġstumbled": 3918,
      "Ġdreamed": 3919,
      "Ġigloo": 3920,
      "enny": 3921,
      "aroo": 3922,
      "angaroo": 3923,
      "Ġfreez": 3924,
      "Ġjuicy": 3925,
      "Ġallowed": 3926,
      "play": 3927,
      "Ġholds": 3928,
      "Ġalready": 3929,
      "Ġavailable": 3930,
      "Ġsett": 3931,
      "Ġbathe": 3932,
      "ĠEverywhere": 3933,
      "Ġtornado": 3934,
      "imney": 3935,
      "Ġfingers": 3936,
      "htray": 3937,
      "Ġhanger": 3938,
      "Ġnewsp": 3939,
      "Ġsize": 3940,
      "Ġlaund": 3941,
      "Ġlend": 3942,
      "Ġchimney": 3943,
      "ĠBefore": 3944,
      "Ġlaundry": 3945,
      "Ġoak": 3946,
      "Ġfisher": 3947,
      "Ġkangaroo": 3948,
      "Ġmen": 3949,
      "Ġtelling": 3950,
      "Ġnovel": 3951,
      "body": 3952,
      "Ġmummy": 3953,
      "Ġpal": 3954,
      "Ġmule": 3955,
      "Ġcherries": 3956,
      "Ġnotice": 3957,
      "Ġpractice": 3958,
      "Ġspilled": 3959,
      "Ġreind": 3960,
      "Ġcomplete": 3961,
      "Ġenjoying": 3962,
      "Ġmicroscope": 3963,
      "Ġgain": 3964,
      "ampoo": 3965,
      "Ġsub": 3966,
      "Ġfireplace": 3967,
      "Ġimagine": 3968,
      "anda": 3969,
      "Ġdisplay": 3970,
      "ocer": 3971,
      "Ġfastest": 3972,
      "Ġmagazine": 3973,
      "Ġhurry": 3974,
      "Ġcabinet": 3975,
      "Ġshrink": 3976,
      "ĠTeddy": 3977,
      "Ġashtray": 3978,
      "Wait": 3979,
      "Ġcows": 3980,
      "gen": 3981,
      "Ġpalace": 3982,
      "Ġimprove": 3983,
      "aches": 3984,
      "arian": 3985,
      "Ġrake": 3986,
      "Ġreindeer": 3987,
      "Ġfalling": 3988,
      "ilet": 3989,
      "oceros": 3990,
      "ured": 3991,
      "ĠMandy": 3992,
      "Ġdiscovered": 3993,
      "Ġstared": 3994,
      "Ġroared": 3995,
      "aid": 3996,
      "Ġsilver": 3997,
      "Ġtub": 3998,
      "Ġtrail": 3999,
      "Ġminer": 4000,
      "There": 4001,
      "come": 4002,
      "Ġbill": 4003,
      "Ġfog": 4004,
      "iction": 4005,
      "Ġax": 4006,
      "stairs": 4007,
      "Ġhut": 4008,
      "Ġhappier": 4009,
      "Ġtoilet": 4010,
      "Ġtaller": 4011,
      "ictionary": 4012,
      "Ġoats": 4013,
      "Ġfisherman": 4014,
      "Ġobject": 4015,
      "Ġpor": 4016,
      "vision": 4017,
      "Ġvaluable": 4018,
      "Ġshampoo": 4019,
      "ĠHere": 4020,
      "Ġholes": 4021,
      "Ġoffered": 4022,
      "Ġboots": 4023,
      "Ġrhinoceros": 4024,
      "Ġnames": 4025,
      "ĠDolly": 4026,
      "Ġclimbing": 4027,
      "Ġblin": 4028,
      "vice": 4029,
      "Ġstretched": 4030,
      "iest": 4031,
      "Ġzipper": 4032,
      "Is": 4033,
      "Ġlistening": 4034,
      "Ġsym": 4035,
      "Ġbathrobe": 4036,
      "alend": 4037,
      "Ġjewelry": 4038,
      "Ġjokes": 4039,
      "Ġtelevision": 4040,
      "Ġprov": 4041,
      "Ġcalend": 4042,
      "Ġstops": 4043,
      "Ġaxe": 4044,
      "Ġjumps": 4045,
      "Ġfuel": 4046,
      "cu": 4047,
      "Ġsparkly": 4048,
      "Ġperfume": 4049,
      "Ġbury": 4050,
      "bol": 4051,
      "Ġpressed": 4052,
      "Ow": 4053,
      "lu": 4054,
      "reek": 4055,
      "Ġrece": 4056,
      "Ġneat": 4057,
      "Ġcreek": 4058,
      "Ġpopped": 4059,
      "Ġopera": 4060,
      "Ġcalendar": 4061,
      "Ġsnap": 4062,
      "Ġattach": 4063,
      "Ġgasped": 4064,
      "Ġsymbol": 4065,
      "Ġtuna": 4066,
      "Ġpapers": 4067,
      "Ġunpack": 4068,
      "Ġresist": 4069,
      "Ġdictionary": 4070,
      "Ġsubway": 4071,
      "Ġletters": 4072,
      "Ġfreezer": 4073,
      "Ġchose": 4074,
      "Ġpinch": 4075,
      "ĠMike": 4076,
      "zag": 4077,
      "Ġspoke": 4078,
      "Ġanyway": 4079,
      "Ġsuper": 4080,
      "Ġhelper": 4081,
      "Ġporch": 4082,
      "affe": 4083,
      "Ġbikes": 4084,
      "Ġlie": 4085,
      "iches": 4086,
      "Ġcomfort": 4087,
      "Ġtightly": 4088,
      "Ġshaking": 4089,
      "Ġbookcase": 4090,
      "ĠPandy": 4091,
      "Ġson": 4092,
      "ĠAre": 4093,
      "Ġrazor": 4094,
      "aurant": 4095
    },
    "merges": [
      [
        "Ġ",
        "t"
      ],
      [
        "h",
        "e"
      ],
      [
        "Ġ",
        "a"
      ],
      [
        "Ġ",
        "s"
      ],
      [
        "n",
        "d"
      ],
      [
        "Ġ",
        "w"
      ],
      [
        "Ġt",
        "he"
      ],
      [
        "e",
        "d"
      ],
      [
        "Ġ",
        "b"
      ],
      [
        "Ġt",
        "o"
      ],
      [
        "Ġa",
        "nd"
      ],
      [
        "Ġ",
        "T"
      ],
      [
        "Ġ",
        "h"
      ],
      [
        "Ġ",
        "f"
      ],
      [
        "i",
        "n"
      ],
      [
        "Ġw",
        "a"
      ],
      [
        "r",
        "e"
      ],
      [
        "i",
        "t"
      ],
      [
        "o",
        "u"
      ],
      [
        "Ġ",
        "l"
      ],
      [
        "Ġ",
        "d"
      ],
      [
        "Ġ",
        "c"
      ],
      [
        "Ġ",
        "p"
      ],
      [
        "ĠT",
        "he"
      ],
      [
        "a",
        "y"
      ],
      [
        "Ġ",
        "m"
      ],
      [
        "e",
        "r"
      ],
      [
        "Ġwa",
        "s"
      ],
      [
        "o",
        "m"
      ],
      [
        "Ġ",
        "he"
      ],
      [
        "i",
        "s"
      ],
      [
        "a",
        "r"
      ],
      [
        "Ġ",
        "n"
      ],
      [
        "i",
        "m"
      ],
      [
        "o",
        "n"
      ],
      [
        "Ġs",
        "a"
      ],
      [
        "i",
        "d"
      ],
      [
        "l",
        "l"
      ],
      [
        "Ġ",
        "S"
      ],
      [
        "Ġh",
        "a"
      ],
      [
        "Ġ",
        "g"
      ],
      [
        "a",
        "t"
      ],
      [
        "in",
        "g"
      ],
      [
        "o",
        "t"
      ],
      [
        "e",
        "n"
      ],
      [
        "a",
        "n"
      ],
      [
        "l",
        "e"
      ],
      [
        "o",
        "r"
      ],
      [
        "e",
        "nd"
      ],
      [
        "Ġ",
        "\""
      ],
      [
        "i",
        "r"
      ],
      [
        "Ġ",
        "H"
      ],
      [
        "o",
        "f"
      ],
      [
        "a",
        "m"
      ],
      [
        "ĠThe",
        "y"
      ],
      [
        "e",
        "t"
      ],
      [
        "Ġ",
        "it"
      ],
      [
        "Ġt",
        "h"
      ],
      [
        "i",
        "g"
      ],
      [
        "ĠH",
        "e"
      ],
      [
        "Ġ",
        "in"
      ],
      [
        "i",
        "l"
      ],
      [
        "Ġp",
        "l"
      ],
      [
        "o",
        "w"
      ],
      [
        "v",
        "er"
      ],
      [
        "r",
        "i"
      ],
      [
        "u",
        "t"
      ],
      [
        "Ġb",
        "e"
      ],
      [
        "Ġ",
        "u"
      ],
      [
        "Ġsa",
        "id"
      ],
      [
        "Ġpl",
        "ay"
      ],
      [
        "Ġ",
        "O"
      ],
      [
        "it",
        "h"
      ],
      [
        "ĠT",
        "im"
      ],
      [
        "Ġd",
        "ay"
      ],
      [
        "Ġw",
        "ith"
      ],
      [
        "p",
        "p"
      ],
      [
        "ĠO",
        "n"
      ],
      [
        "Ġ",
        "y"
      ],
      [
        "o",
        "o"
      ],
      [
        "k",
        "ed"
      ],
      [
        "Ġ",
        "r"
      ],
      [
        "Ġ",
        "I"
      ],
      [
        "ĠS",
        "he"
      ],
      [
        "Ġhe",
        "r"
      ],
      [
        "e",
        "x"
      ],
      [
        "c",
        "e"
      ],
      [
        "l",
        "d"
      ],
      [
        "Ġh",
        "is"
      ],
      [
        "Ġs",
        "t"
      ],
      [
        "k",
        "e"
      ],
      [
        "Ġ",
        "L"
      ],
      [
        "Ġb",
        "ig"
      ],
      [
        "n",
        "t"
      ],
      [
        "c",
        "k"
      ],
      [
        "Ġy",
        "ou"
      ],
      [
        "ver",
        "y"
      ],
      [
        "s",
        "t"
      ],
      [
        "v",
        "e"
      ],
      [
        "Ġ",
        "B"
      ],
      [
        "Ġ",
        "on"
      ],
      [
        "u",
        "n"
      ],
      [
        "Ġha",
        "pp"
      ],
      [
        "ri",
        "end"
      ],
      [
        "Ġf",
        "riend"
      ],
      [
        "a",
        "ll"
      ],
      [
        "il",
        "y"
      ],
      [
        "ex",
        "t"
      ],
      [
        "Ġ",
        "M"
      ],
      [
        "Ġthe",
        "y"
      ],
      [
        "of",
        "t"
      ],
      [
        "Ġw",
        "e"
      ],
      [
        "Ġha",
        "d"
      ],
      [
        "Ġn",
        "ot"
      ],
      [
        "Ġl",
        "i"
      ],
      [
        "Ġu",
        "p"
      ],
      [
        "he",
        "r"
      ],
      [
        "Ġwa",
        "nt"
      ],
      [
        "Ġ",
        "of"
      ],
      [
        "a",
        "d"
      ],
      [
        "it",
        "t"
      ],
      [
        "Ġ",
        "<"
      ],
      [
        "|",
        ">"
      ],
      [
        "end",
        "oft"
      ],
      [
        "Ġ<",
        "|"
      ],
      [
        "endoft",
        "ext"
      ],
      [
        "s",
        "e"
      ],
      [
        "Ġd",
        "o"
      ],
      [
        "Ġ",
        "e"
      ],
      [
        "Ġhapp",
        "y"
      ],
      [
        "en",
        "t"
      ],
      [
        "Ġ",
        "very"
      ],
      [
        "e",
        "s"
      ],
      [
        "Ġth",
        "at"
      ],
      [
        "Ġsa",
        "w"
      ],
      [
        "ĠL",
        "ily"
      ],
      [
        "ĠOn",
        "e"
      ],
      [
        "'",
        "s"
      ],
      [
        "Ġ",
        "A"
      ],
      [
        "ou",
        "ld"
      ],
      [
        "Ġm",
        "om"
      ],
      [
        "Ġf",
        "or"
      ],
      [
        "Ġs",
        "h"
      ],
      [
        "itt",
        "le"
      ],
      [
        "Ġl",
        "ittle"
      ],
      [
        "ĠT",
        "om"
      ],
      [
        "Ġs",
        "he"
      ],
      [
        "c",
        "h"
      ],
      [
        "im",
        "e"
      ],
      [
        "Ġn",
        "am"
      ],
      [
        ".",
        "\""
      ],
      [
        "Ġt",
        "ime"
      ],
      [
        "Ġ",
        "k"
      ],
      [
        "ou",
        "nd"
      ],
      [
        "Ġs",
        "o"
      ],
      [
        "Ġthe",
        "re"
      ],
      [
        "Ġnam",
        "ed"
      ],
      [
        "Ġs",
        "m"
      ],
      [
        "Ġb",
        "o"
      ],
      [
        "Ġwe",
        "re"
      ],
      [
        "Ġn",
        "e"
      ],
      [
        "Ġwant",
        "ed"
      ],
      [
        "Ġb",
        "ut"
      ],
      [
        "ou",
        "t"
      ],
      [
        "Ġfriend",
        "s"
      ],
      [
        "v",
        "ed"
      ],
      [
        "!",
        "\""
      ],
      [
        "h",
        "t"
      ],
      [
        "ir",
        "d"
      ],
      [
        "e",
        "l"
      ],
      [
        "Ġb",
        "ird"
      ],
      [
        "a",
        "l"
      ],
      [
        "Ġa",
        "n"
      ],
      [
        "a",
        "ke"
      ],
      [
        "ĠI",
        "t"
      ],
      [
        "Ġto",
        "o"
      ],
      [
        "om",
        "e"
      ],
      [
        "u",
        "g"
      ],
      [
        "Ġ",
        "Ċ"
      ],
      [
        "id",
        "e"
      ],
      [
        "Ġw",
        "ent"
      ],
      [
        "Ġw",
        "h"
      ],
      [
        "Ġhe",
        "l"
      ],
      [
        "ĠOn",
        "ce"
      ],
      [
        "Ġ",
        "is"
      ],
      [
        "Ġa",
        "ll"
      ],
      [
        "Ġhel",
        "p"
      ],
      [
        "u",
        "e"
      ],
      [
        "Ġl",
        "oo"
      ],
      [
        "Ġl",
        "o"
      ],
      [
        "t",
        "er"
      ],
      [
        "Ġup",
        "on"
      ],
      [
        "r",
        "y"
      ],
      [
        "o",
        "re"
      ],
      [
        "i",
        "nd"
      ],
      [
        "Ġf",
        "un"
      ],
      [
        "g",
        "et"
      ],
      [
        "Ġto",
        "y"
      ],
      [
        "i",
        "ll"
      ],
      [
        "am",
        "e"
      ],
      [
        "Ġa",
        "s"
      ],
      [
        "Ġa",
        "t"
      ],
      [
        "r",
        "a"
      ],
      [
        "Ġ",
        "j"
      ],
      [
        "Ġd",
        "id"
      ],
      [
        "get",
        "her"
      ],
      [
        "Ġ",
        "re"
      ],
      [
        "u",
        "r"
      ],
      [
        "Ġ",
        "o"
      ],
      [
        "Ġs",
        "e"
      ],
      [
        "Ġto",
        "gether"
      ],
      [
        "a",
        "ck"
      ],
      [
        "Ġc",
        "at"
      ],
      [
        "l",
        "y"
      ],
      [
        "Ġt",
        "re"
      ],
      [
        "oo",
        "d"
      ],
      [
        "i",
        "c"
      ],
      [
        "t",
        "ed"
      ],
      [
        "Ġdo",
        "g"
      ],
      [
        "Ġc",
        "ould"
      ],
      [
        "Ġc",
        "an"
      ],
      [
        "Ġthe",
        "ir"
      ],
      [
        "ar",
        "d"
      ],
      [
        "e",
        "c"
      ],
      [
        "ar",
        "k"
      ],
      [
        "Ġg",
        "ir"
      ],
      [
        "Ġplay",
        "ed"
      ],
      [
        "Ġh",
        "im"
      ],
      [
        "Ġb",
        "all"
      ],
      [
        "?",
        "\""
      ],
      [
        "Ġgir",
        "l"
      ],
      [
        "Ġr",
        "o"
      ],
      [
        "w",
        "ay"
      ],
      [
        "Ġg",
        "o"
      ],
      [
        "he",
        "d"
      ],
      [
        "m",
        "y"
      ],
      [
        "Ġa",
        "re"
      ],
      [
        "Ġ",
        "out"
      ],
      [
        "Ġl",
        "e"
      ],
      [
        "Ġf",
        "r"
      ],
      [
        "a",
        "in"
      ],
      [
        "ĠB",
        "ut"
      ],
      [
        "he",
        "n"
      ],
      [
        "Ġk",
        "n"
      ],
      [
        "Ġthe",
        "m"
      ],
      [
        "u",
        "m"
      ],
      [
        "'",
        "t"
      ],
      [
        "a",
        "x"
      ],
      [
        "Ġsa",
        "d"
      ],
      [
        "Ġ",
        "W"
      ],
      [
        "ĠS",
        "ue"
      ],
      [
        "u",
        "l"
      ],
      [
        "Ġbo",
        "y"
      ],
      [
        "Ġtre",
        "e"
      ],
      [
        "ot",
        "her"
      ],
      [
        "Ġha",
        "ve"
      ],
      [
        "Ġm",
        "an"
      ],
      [
        "ĠM",
        "ax"
      ],
      [
        "Ġc",
        "l"
      ],
      [
        "Ġlo",
        "ved"
      ],
      [
        "Ġloo",
        "ked"
      ],
      [
        "ou",
        "g"
      ],
      [
        "Ġf",
        "ound"
      ],
      [
        "Ġs",
        "p"
      ],
      [
        "Ġst",
        "ar"
      ],
      [
        "on",
        "e"
      ],
      [
        "h",
        "ing"
      ],
      [
        "Ġs",
        "c"
      ],
      [
        "Ġb",
        "ack"
      ],
      [
        "ow",
        "n"
      ],
      [
        "ĠB",
        "en"
      ],
      [
        "a",
        "re"
      ],
      [
        "Ġli",
        "ke"
      ],
      [
        "f",
        "ul"
      ],
      [
        "s",
        "ide"
      ],
      [
        "Ġm",
        "e"
      ],
      [
        "Ġbe",
        "c"
      ],
      [
        "ĠS",
        "am"
      ],
      [
        "Ġp",
        "ark"
      ],
      [
        "ig",
        "ht"
      ],
      [
        "on",
        "g"
      ],
      [
        "Ġc",
        "ar"
      ],
      [
        "Ġ",
        "J"
      ],
      [
        "o",
        "p"
      ],
      [
        "el",
        "t"
      ],
      [
        "Ġli",
        "ked"
      ],
      [
        "Ġw",
        "ould"
      ],
      [
        "Ġm",
        "ake"
      ],
      [
        "r",
        "ound"
      ],
      [
        "Ġl",
        "a"
      ],
      [
        "Ġf",
        "a"
      ],
      [
        "Ġf",
        "elt"
      ],
      [
        "Y",
        "ou"
      ],
      [
        "e",
        "ll"
      ],
      [
        "Ġse",
        "e"
      ],
      [
        "om",
        "et"
      ],
      [
        "Ġas",
        "ked"
      ],
      [
        "a",
        "g"
      ],
      [
        "Ġne",
        "w"
      ],
      [
        "Ġn",
        "o"
      ],
      [
        "i",
        "ce"
      ],
      [
        "ou",
        "se"
      ],
      [
        "Ġstar",
        "ted"
      ],
      [
        "ar",
        "ed"
      ],
      [
        "Ġc",
        "ame"
      ],
      [
        "Ġa",
        "l"
      ],
      [
        "Ġ",
        "other"
      ],
      [
        "oug",
        "ht"
      ],
      [
        "il",
        "ed"
      ],
      [
        "Ġ",
        "F"
      ],
      [
        "Ġs",
        "omet"
      ],
      [
        "Ġa",
        "g"
      ],
      [
        "Ġg",
        "ood"
      ],
      [
        "Ġsm",
        "all"
      ],
      [
        "s",
        "s"
      ],
      [
        "Ġb",
        "r"
      ],
      [
        "Ġsm",
        "iled"
      ],
      [
        "Ġs",
        "ay"
      ],
      [
        "ri",
        "ed"
      ],
      [
        "ad",
        "e"
      ],
      [
        "ĠS",
        "p"
      ],
      [
        "ing",
        "s"
      ],
      [
        "o",
        "b"
      ],
      [
        "Ġw",
        "or"
      ],
      [
        "ĠSp",
        "ot"
      ],
      [
        "Ġf",
        "ind"
      ],
      [
        "i",
        "a"
      ],
      [
        "Ġa",
        "way"
      ],
      [
        "t",
        "y"
      ],
      [
        "Ġp",
        "ut"
      ],
      [
        "Ġ",
        "ex"
      ],
      [
        "Ġwh",
        "at"
      ],
      [
        "Ġsomet",
        "hing"
      ],
      [
        "Ġfr",
        "om"
      ],
      [
        "Ġm",
        "ade"
      ],
      [
        "Ġth",
        "ought"
      ],
      [
        "en",
        "ed"
      ],
      [
        "Ġh",
        "ome"
      ],
      [
        "Ġplay",
        "ing"
      ],
      [
        "Ġc",
        "o"
      ],
      [
        "oo",
        "k"
      ],
      [
        "Ġe",
        "very"
      ],
      [
        "Ġwa",
        "l"
      ],
      [
        "Ġm",
        "u"
      ],
      [
        "u",
        "c"
      ],
      [
        "a",
        "ch"
      ],
      [
        "ar",
        "n"
      ],
      [
        "Ġr",
        "an"
      ],
      [
        "i",
        "le"
      ],
      [
        "i",
        "e"
      ],
      [
        "ĠM",
        "ia"
      ],
      [
        "a",
        "ve"
      ],
      [
        "Ġag",
        "ain"
      ],
      [
        "Ġs",
        "ome"
      ],
      [
        "Ġla",
        "ug"
      ],
      [
        "d",
        "d"
      ],
      [
        "Ġh",
        "ouse"
      ],
      [
        "Ġd",
        "own"
      ],
      [
        "Ġf",
        "l"
      ],
      [
        "k",
        "ing"
      ],
      [
        "Ġtoo",
        "k"
      ],
      [
        "Ġsc",
        "ared"
      ],
      [
        "Ġp",
        "r"
      ],
      [
        "n",
        "y"
      ],
      [
        "u",
        "re"
      ],
      [
        "Ġtoy",
        "s"
      ],
      [
        "Ġle",
        "arn"
      ],
      [
        "Ġ",
        "You"
      ],
      [
        "i",
        "f"
      ],
      [
        "Ġw",
        "ill"
      ],
      [
        "Ġbo",
        "x"
      ],
      [
        "i",
        "ck"
      ],
      [
        "re",
        "t"
      ],
      [
        "a",
        "b"
      ],
      [
        "e",
        "p"
      ],
      [
        "Ġm",
        "y"
      ],
      [
        "Ġa",
        "round"
      ],
      [
        "Ġth",
        "ings"
      ],
      [
        "Ġyou",
        "r"
      ],
      [
        "ou",
        "d"
      ],
      [
        "Ġb",
        "l"
      ],
      [
        "u",
        "ck"
      ],
      [
        "Ġw",
        "hen"
      ],
      [
        "is",
        "h"
      ],
      [
        "Ġli",
        "ved"
      ],
      [
        "Ġf",
        "e"
      ],
      [
        "Ġthe",
        "n"
      ],
      [
        "Ġs",
        "un"
      ],
      [
        "a",
        "s"
      ],
      [
        "Ġs",
        "w"
      ],
      [
        "ĠS",
        "o"
      ],
      [
        ",",
        "\""
      ],
      [
        "ĠM",
        "om"
      ],
      [
        "Ġc",
        "h"
      ],
      [
        "u",
        "s"
      ],
      [
        "pp",
        "ed"
      ],
      [
        "Ġa",
        "b"
      ],
      [
        "an",
        "k"
      ],
      [
        "Ġg",
        "et"
      ],
      [
        "uc",
        "y"
      ],
      [
        "um",
        "p"
      ],
      [
        "Ġl",
        "ot"
      ],
      [
        "is",
        "t"
      ],
      [
        "ĠL",
        "ucy"
      ],
      [
        "Ġ",
        "D"
      ],
      [
        "ot",
        "h"
      ],
      [
        "a",
        "p"
      ],
      [
        "Ġt",
        "ried"
      ],
      [
        "Ġkn",
        "ow"
      ],
      [
        "Ġsay",
        "s"
      ],
      [
        "Ġg",
        "ot"
      ],
      [
        "it",
        "ed"
      ],
      [
        "Ġwh",
        "o"
      ],
      [
        "T",
        "h"
      ],
      [
        "Ġkn",
        "e"
      ],
      [
        "u",
        "st"
      ],
      [
        "Ġman",
        "y"
      ],
      [
        "ĠB",
        "ob"
      ],
      [
        "nd",
        "er"
      ],
      [
        "Ġin",
        "t"
      ],
      [
        "Ġab",
        "out"
      ],
      [
        "Ġp",
        "ret"
      ],
      [
        "Ġd",
        "ec"
      ],
      [
        "Ġan",
        "y"
      ],
      [
        "Ġr",
        "ed"
      ],
      [
        "i",
        "ve"
      ],
      [
        "Ġkne",
        "w"
      ],
      [
        "a",
        "ce"
      ],
      [
        "ou",
        "s"
      ],
      [
        "Ġm",
        "ore"
      ],
      [
        "is",
        "e"
      ],
      [
        "Ġ",
        "v"
      ],
      [
        "Ġc",
        "are"
      ],
      [
        "all",
        "y"
      ],
      [
        "Ġp",
        "ic"
      ],
      [
        "a",
        "u"
      ],
      [
        "q",
        "u"
      ],
      [
        "Ġh",
        "ug"
      ],
      [
        "Ġlearn",
        "ed"
      ],
      [
        "Ġp",
        "o"
      ],
      [
        "Ġwa",
        "ter"
      ],
      [
        "f",
        "ter"
      ],
      [
        "Ġbec",
        "ame"
      ],
      [
        "Ġbe",
        "st"
      ],
      [
        "ĠA",
        "nd"
      ],
      [
        "au",
        "se"
      ],
      [
        "Ġo",
        "p"
      ],
      [
        "Ġg",
        "re"
      ],
      [
        "Ġ",
        "E"
      ],
      [
        "Ġex",
        "c"
      ],
      [
        "ur",
        "p"
      ],
      [
        "way",
        "s"
      ],
      [
        "â",
        "Ģ"
      ],
      [
        "Ġout",
        "side"
      ],
      [
        "Ġlaug",
        "hed"
      ],
      [
        "Ġloo",
        "k"
      ],
      [
        "Ġal",
        "ways"
      ],
      [
        "Ġdec",
        "id"
      ],
      [
        "Ġsh",
        "ow"
      ],
      [
        "Ġu",
        "n"
      ],
      [
        "an",
        "t"
      ],
      [
        "Ġro",
        "om"
      ],
      [
        "f",
        "e"
      ],
      [
        "Ġdecid",
        "ed"
      ],
      [
        "Ġh",
        "o"
      ],
      [
        "Ġbec",
        "ause"
      ],
      [
        "Ġint",
        "o"
      ],
      [
        "Ġe",
        "at"
      ],
      [
        "it",
        "e"
      ],
      [
        "Ġj",
        "ump"
      ],
      [
        "Ġp",
        "e"
      ],
      [
        "Ġb",
        "oth"
      ],
      [
        "er",
        "s"
      ],
      [
        "ĠThe",
        "n"
      ],
      [
        "Ġd",
        "ad"
      ],
      [
        "u",
        "dd"
      ],
      [
        "Ġ",
        "ke"
      ],
      [
        "Ġon",
        "e"
      ],
      [
        "ĠW",
        "hen"
      ],
      [
        "n",
        "n"
      ],
      [
        "Ġth",
        "is"
      ],
      [
        "Ġexc",
        "ited"
      ],
      [
        "Ġfa",
        "st"
      ],
      [
        "Ġn",
        "ice"
      ],
      [
        "Ġfe",
        "el"
      ],
      [
        "Y",
        "es"
      ],
      [
        "Ġr",
        "un"
      ],
      [
        "Ġl",
        "ong"
      ],
      [
        "ĠA",
        "nn"
      ],
      [
        "Ġto",
        "ld"
      ],
      [
        "Ġs",
        "k"
      ],
      [
        "Ġa",
        "m"
      ],
      [
        "urp",
        "r"
      ],
      [
        "ou",
        "r"
      ],
      [
        "Ġin",
        "side"
      ],
      [
        "u",
        "ll"
      ],
      [
        "Ġt",
        "r"
      ],
      [
        "Ġs",
        "urpr"
      ],
      [
        "Ġm",
        "o"
      ],
      [
        "ĠH",
        "is"
      ],
      [
        "in",
        "k"
      ],
      [
        "Ġpret",
        "ty"
      ],
      [
        "in",
        "y"
      ],
      [
        "Ġs",
        "or"
      ],
      [
        "Ġt",
        "ake"
      ],
      [
        "ĠF",
        "r"
      ],
      [
        "o",
        "g"
      ],
      [
        "Ġ",
        "C"
      ],
      [
        "Ġs",
        "l"
      ],
      [
        "Ġe",
        "ach"
      ],
      [
        "Ġg",
        "ave"
      ],
      [
        "h",
        "at"
      ],
      [
        "Ġmu",
        "ch"
      ],
      [
        "Ġg",
        "ra"
      ],
      [
        "le",
        "w"
      ],
      [
        "Ġro",
        "ck"
      ],
      [
        "Ġh",
        "ow"
      ],
      [
        "Ġst",
        "r"
      ],
      [
        "ar",
        "a"
      ],
      [
        "im",
        "al"
      ],
      [
        "Ġan",
        "imal"
      ],
      [
        "g",
        "ed"
      ],
      [
        "Ġne",
        "ed"
      ],
      [
        "Ġth",
        "an"
      ],
      [
        "ĠAnn",
        "a"
      ],
      [
        "ĠA",
        "my"
      ],
      [
        "v",
        "en"
      ],
      [
        "et",
        "ter"
      ],
      [
        "Ġto",
        "w"
      ],
      [
        "Ġ",
        "or"
      ],
      [
        "ĠA",
        "s"
      ],
      [
        "Ġu",
        "nder"
      ],
      [
        "es",
        "s"
      ],
      [
        "Ġo",
        "ld"
      ],
      [
        "Ġsor",
        "ry"
      ],
      [
        "g",
        "e"
      ],
      [
        "is",
        "ed"
      ],
      [
        "r",
        "o"
      ],
      [
        "ur",
        "t"
      ],
      [
        "ĠS",
        "ara"
      ],
      [
        "Ġc",
        "le"
      ],
      [
        "Ġf",
        "ish"
      ],
      [
        "Ġwal",
        "ked"
      ],
      [
        "Ġcl",
        "o"
      ],
      [
        "a",
        "nd"
      ],
      [
        "he",
        "re"
      ],
      [
        "Ġbe",
        "ar"
      ],
      [
        "a",
        "se"
      ],
      [
        "a",
        "st"
      ],
      [
        "Ġha",
        "nd"
      ],
      [
        "ur",
        "n"
      ],
      [
        "ĠW",
        "e"
      ],
      [
        "Ġk",
        "ind"
      ],
      [
        "Ġhapp",
        "ened"
      ],
      [
        "Ġj",
        "ust"
      ],
      [
        "Ġfl",
        "ow"
      ],
      [
        "ĠH",
        "er"
      ],
      [
        "Ġf",
        "ood"
      ],
      [
        "Ġl",
        "ist"
      ],
      [
        "Ġdid",
        "n"
      ],
      [
        "Ġt",
        "e"
      ],
      [
        "Ġanimal",
        "s"
      ],
      [
        "Ġh",
        "ig"
      ],
      [
        "Ġne",
        "ar"
      ],
      [
        "Ġwa",
        "t"
      ],
      [
        "ĠI",
        "n"
      ],
      [
        "Ġ",
        "ide"
      ],
      [
        "Ġt",
        "ry"
      ],
      [
        "c",
        "hed"
      ],
      [
        "Ġsk",
        "y"
      ],
      [
        "in",
        "e"
      ],
      [
        "Ġs",
        "n"
      ],
      [
        "p",
        "l"
      ],
      [
        "v",
        "ing"
      ],
      [
        "Ġf",
        "i"
      ],
      [
        "Ġu",
        "s"
      ],
      [
        "ĠFr",
        "om"
      ],
      [
        "Ġide",
        "a"
      ],
      [
        "Ġb",
        "etter"
      ],
      [
        "Ġb",
        "ug"
      ],
      [
        "Ġhe",
        "ard"
      ],
      [
        "g",
        "ry"
      ],
      [
        "Ġit",
        "s"
      ],
      [
        "Ġt",
        "w"
      ],
      [
        "Ġl",
        "et"
      ],
      [
        "p",
        "ec"
      ],
      [
        "at",
        "e"
      ],
      [
        "ab",
        "le"
      ],
      [
        "f",
        "f"
      ],
      [
        "Ġ",
        "en"
      ],
      [
        "Ġcare",
        "ful"
      ],
      [
        "Ġsh",
        "are"
      ],
      [
        "Ġ",
        "if"
      ],
      [
        "Th",
        "ank"
      ],
      [
        "Ġf",
        "ly"
      ],
      [
        "Ġst",
        "or"
      ],
      [
        "i",
        "al"
      ],
      [
        "Ġf",
        "lew"
      ],
      [
        "m",
        "ore"
      ],
      [
        "Ġany",
        "more"
      ],
      [
        "Ġsp",
        "ec"
      ],
      [
        "Ġspec",
        "ial"
      ],
      [
        "i",
        "on"
      ],
      [
        "Ġc",
        "om"
      ],
      [
        "Ġlot",
        "s"
      ],
      [
        "Ġne",
        "ver"
      ],
      [
        "Ġb",
        "y"
      ],
      [
        "l",
        "f"
      ],
      [
        "re",
        "am"
      ],
      [
        "Ġd",
        "an"
      ],
      [
        "Ġb",
        "u"
      ],
      [
        "Ġf",
        "o"
      ],
      [
        "Ġw",
        "ind"
      ],
      [
        "Ġd",
        "on"
      ],
      [
        "ĠE",
        "very"
      ],
      [
        "Ġt",
        "al"
      ],
      [
        "Ġcle",
        "an"
      ],
      [
        "or",
        "t"
      ],
      [
        "Ġg",
        "r"
      ],
      [
        "Ġlo",
        "ve"
      ],
      [
        "r",
        "m"
      ],
      [
        "b",
        "er"
      ],
      [
        "Ġ",
        "end"
      ],
      [
        "op",
        "le"
      ],
      [
        "Ġe",
        "ven"
      ],
      [
        "Ġm",
        "ag"
      ],
      [
        "Ġ",
        "K"
      ],
      [
        "Ġh",
        "ard"
      ],
      [
        "Ġsh",
        "iny"
      ],
      [
        "udd",
        "en"
      ],
      [
        "Ġf",
        "ore"
      ],
      [
        "Ġo",
        "ver"
      ],
      [
        "Ġc",
        "ake"
      ],
      [
        "a",
        "k"
      ],
      [
        "Ġb",
        "ook"
      ],
      [
        "Ġco",
        "l"
      ],
      [
        "Ġt",
        "urn"
      ],
      [
        "Ġf",
        "am"
      ],
      [
        "Ġb",
        "ad"
      ],
      [
        "Ġsa",
        "fe"
      ],
      [
        "Ġa",
        "fter"
      ],
      [
        "ad",
        "y"
      ],
      [
        "udden",
        "ly"
      ],
      [
        "Ġpe",
        "ople"
      ],
      [
        "Ġpr",
        "oud"
      ],
      [
        "Ġsurpr",
        "ised"
      ],
      [
        "pec",
        "ted"
      ],
      [
        "L",
        "et"
      ],
      [
        "Ġhig",
        "h"
      ],
      [
        "Ġc",
        "u"
      ],
      [
        "Ġh",
        "urt"
      ],
      [
        "Ġc",
        "ome"
      ],
      [
        "im",
        "b"
      ],
      [
        "ard",
        "en"
      ],
      [
        "Ġdo",
        "or"
      ],
      [
        "Ġg",
        "arden"
      ],
      [
        "b",
        "b"
      ],
      [
        "Ġg",
        "round"
      ],
      [
        "Ġop",
        "ened"
      ],
      [
        "Ġpic",
        "ked"
      ],
      [
        "Ġl",
        "oud"
      ],
      [
        "Ġcl",
        "imb"
      ],
      [
        "ex",
        "pected"
      ],
      [
        "Ġun",
        "expected"
      ],
      [
        "h",
        "y"
      ],
      [
        "Ġg",
        "l"
      ],
      [
        "Ġc",
        "he"
      ],
      [
        "il",
        "d"
      ],
      [
        "Ġ",
        "im"
      ],
      [
        "Ġg",
        "ive"
      ],
      [
        "Ġwa",
        "y"
      ],
      [
        "a",
        "il"
      ],
      [
        "'",
        "m"
      ],
      [
        "Ġthan",
        "ked"
      ],
      [
        "Ġcol",
        "or"
      ],
      [
        "Ġbl",
        "ue"
      ],
      [
        "Ġst",
        "ill"
      ],
      [
        "Ġe",
        "ver"
      ],
      [
        "Ġhug",
        "ged"
      ],
      [
        "Ġ",
        "P"
      ],
      [
        "Ġc",
        "all"
      ],
      [
        "Ġf",
        "ar"
      ],
      [
        "i",
        "p"
      ],
      [
        "N",
        "o"
      ],
      [
        "Ġof",
        "f"
      ],
      [
        "Ġmag",
        "ic"
      ],
      [
        "i",
        "z"
      ],
      [
        "ag",
        "e"
      ],
      [
        "oug",
        "h"
      ],
      [
        "um",
        "my"
      ],
      [
        "Ġjump",
        "ed"
      ],
      [
        "Ġsh",
        "ould"
      ],
      [
        "Ġfam",
        "ily"
      ],
      [
        "Ġp",
        "ar"
      ],
      [
        "oo",
        "l"
      ],
      [
        "Ġk",
        "id"
      ],
      [
        "Ġsm",
        "ile"
      ],
      [
        "ĠJ",
        "o"
      ],
      [
        "he",
        "s"
      ],
      [
        "u",
        "ff"
      ],
      [
        "Ġpl",
        "ace"
      ],
      [
        "k",
        "ay"
      ],
      [
        "Ġwal",
        "k"
      ],
      [
        "Ġn",
        "ow"
      ],
      [
        "c",
        "t"
      ],
      [
        "Ġgre",
        "at"
      ],
      [
        "e",
        "m"
      ],
      [
        "Ġ",
        "qu"
      ],
      [
        "ĠS",
        "uddenly"
      ],
      [
        "le",
        "s"
      ],
      [
        "Ġstr",
        "ong"
      ],
      [
        "Ġst",
        "ay"
      ],
      [
        "Ġu",
        "nt"
      ],
      [
        "Ġst",
        "o"
      ],
      [
        "a",
        "ut"
      ],
      [
        "Ġfore",
        "st"
      ],
      [
        "t",
        "ure"
      ],
      [
        "an",
        "e"
      ],
      [
        "Ġb",
        "ra"
      ],
      [
        "itt",
        "y"
      ],
      [
        "Ġfr",
        "og"
      ],
      [
        "Ġbr",
        "o"
      ],
      [
        "Ġunt",
        "il"
      ],
      [
        "Ġbe",
        "aut"
      ],
      [
        "d",
        "y"
      ],
      [
        "Ġs",
        "qu"
      ],
      [
        "Ġst",
        "ick"
      ],
      [
        "Ġn",
        "ext"
      ],
      [
        "Ġbo",
        "at"
      ],
      [
        "le",
        "ase"
      ],
      [
        "n",
        "ing"
      ],
      [
        "ĠS",
        "ally"
      ],
      [
        "ĠA",
        "fter"
      ],
      [
        "Ġ",
        "N"
      ],
      [
        "Ġhapp",
        "ily"
      ],
      [
        "Ġlist",
        "en"
      ],
      [
        "a",
        "king"
      ],
      [
        "Ġkid",
        "s"
      ],
      [
        "Ġt",
        "ra"
      ],
      [
        "ĠK",
        "itty"
      ],
      [
        "i",
        "es"
      ],
      [
        "i",
        "ful"
      ],
      [
        "Ġbeaut",
        "iful"
      ],
      [
        "Ġa",
        "pp"
      ],
      [
        "Ġhelp",
        "ed"
      ],
      [
        "Ġd",
        "ra"
      ],
      [
        "Ġshow",
        "ed"
      ],
      [
        "Ġclo",
        "s"
      ],
      [
        "b",
        "e"
      ],
      [
        "Ġim",
        "p"
      ],
      [
        "Ġstor",
        "y"
      ],
      [
        "un",
        "ny"
      ],
      [
        "Ġwh",
        "ile"
      ],
      [
        "Ġtow",
        "n"
      ],
      [
        "re",
        "l"
      ],
      [
        "p",
        "t"
      ],
      [
        "Ġr",
        "ain"
      ],
      [
        "re",
        "ss"
      ],
      [
        "Ġpic",
        "ture"
      ],
      [
        "ĠA",
        "t"
      ],
      [
        "o",
        "y"
      ],
      [
        "Ġbe",
        "ing"
      ],
      [
        "Ġre",
        "m"
      ],
      [
        "Ġevery",
        "one"
      ],
      [
        "ar",
        "y"
      ],
      [
        "re",
        "e"
      ],
      [
        "Ġm",
        "or"
      ],
      [
        "Ġ",
        "R"
      ],
      [
        "Ġha",
        "t"
      ],
      [
        "Ġcall",
        "ed"
      ],
      [
        "Ġm",
        "et"
      ],
      [
        "Ġsto",
        "pped"
      ],
      [
        "Ġa",
        "d"
      ],
      [
        "Ġg",
        "ame"
      ],
      [
        "Ġw",
        "o"
      ],
      [
        "C",
        "an"
      ],
      [
        "Ġan",
        "gry"
      ],
      [
        "g",
        "er"
      ],
      [
        "uff",
        "y"
      ],
      [
        "Ġs",
        "oft"
      ],
      [
        "ĠF",
        "in"
      ],
      [
        "Ġop",
        "en"
      ],
      [
        "Ġtr",
        "uck"
      ],
      [
        "Ġke",
        "ep"
      ],
      [
        "Ġc",
        "ry"
      ],
      [
        "Ġy",
        "ummy"
      ],
      [
        "ĠT",
        "h"
      ],
      [
        "Ġlo",
        "st"
      ],
      [
        "Ġb",
        "ed"
      ],
      [
        "ĠL",
        "et"
      ],
      [
        "Ġwa",
        "rm"
      ],
      [
        "b",
        "y"
      ],
      [
        "v",
        "ent"
      ],
      [
        "ĠJ",
        "ack"
      ],
      [
        "Ġbra",
        "ve"
      ],
      [
        "Ġm",
        "ouse"
      ],
      [
        "Ġat",
        "e"
      ],
      [
        "o",
        "on"
      ],
      [
        "is",
        "hed"
      ],
      [
        "Ġd",
        "e"
      ],
      [
        "I",
        "t"
      ],
      [
        "f",
        "ore"
      ],
      [
        "Ġdo",
        "ll"
      ],
      [
        "s",
        "o"
      ],
      [
        "Ġcould",
        "n"
      ],
      [
        "Ġwat",
        "ch"
      ],
      [
        "Ġle",
        "ave"
      ],
      [
        "Ġal",
        "so"
      ],
      [
        "dd",
        "ed"
      ],
      [
        "Ġf",
        "ell"
      ],
      [
        "Ġgre",
        "en"
      ],
      [
        "Ġfa",
        "ce"
      ],
      [
        "Ġtw",
        "o"
      ],
      [
        "ĠF",
        "l"
      ],
      [
        "g",
        "an"
      ],
      [
        "is",
        "s"
      ],
      [
        "Ġflow",
        "ers"
      ],
      [
        "b",
        "it"
      ],
      [
        "Ġ",
        "âĢ"
      ],
      [
        "b",
        "le"
      ],
      [
        "Ġno",
        "ise"
      ],
      [
        "W",
        "hat"
      ],
      [
        "ab",
        "bit"
      ],
      [
        "ir",
        "st"
      ],
      [
        "ow",
        "l"
      ],
      [
        "Ġw",
        "here"
      ],
      [
        "a",
        "z"
      ],
      [
        "o",
        "ck"
      ],
      [
        "Ġso",
        "on"
      ],
      [
        "se",
        "lf"
      ],
      [
        "Ġsl",
        "ide"
      ],
      [
        "Ġr",
        "abbit"
      ],
      [
        "Ġho",
        "le"
      ],
      [
        "Ġ",
        "G"
      ],
      [
        "Ġbe",
        "fore"
      ],
      [
        "ir",
        "rel"
      ],
      [
        "Ġp",
        "us"
      ],
      [
        "ir",
        "ed"
      ],
      [
        "Ġsa",
        "t"
      ],
      [
        "ill",
        "y"
      ],
      [
        "Ġhe",
        "ar"
      ],
      [
        "ĠFl",
        "uffy"
      ],
      [
        "Ġu",
        "se"
      ],
      [
        "Ġp",
        "a"
      ],
      [
        "Ġke",
        "pt"
      ],
      [
        "H",
        "i"
      ],
      [
        "ĠâĢ",
        "ľ"
      ],
      [
        "âĢ",
        "Ŀ"
      ],
      [
        "Ġsqu",
        "irrel"
      ],
      [
        "e",
        "ar"
      ],
      [
        "m",
        "a"
      ],
      [
        "Ġno",
        "dded"
      ],
      [
        "ĠN",
        "ow"
      ],
      [
        "Ġex",
        "pl"
      ],
      [
        "Ġst",
        "ore"
      ],
      [
        "Ġc",
        "ook"
      ],
      [
        "Ġhand",
        "s"
      ],
      [
        "L",
        "ook"
      ],
      [
        "Ġbird",
        "s"
      ],
      [
        "Ġp",
        "ain"
      ],
      [
        "Ġgo",
        "ing"
      ],
      [
        "Ġfun",
        "ny"
      ],
      [
        "Ġha",
        "ving"
      ],
      [
        "d",
        "ay"
      ],
      [
        "Ġs",
        "ing"
      ],
      [
        "ay",
        "be"
      ],
      [
        "u",
        "ch"
      ],
      [
        "Ġe",
        "y"
      ],
      [
        "a",
        "ug"
      ],
      [
        "Ġcat",
        "ch"
      ],
      [
        "aug",
        "ht"
      ],
      [
        "ĠC",
        "an"
      ],
      [
        "u",
        "it"
      ],
      [
        "Ġy",
        "ell"
      ],
      [
        "Ġth",
        "ink"
      ],
      [
        "le",
        "ep"
      ],
      [
        "Ġc",
        "ra"
      ],
      [
        "Ġf",
        "in"
      ],
      [
        "Ġb",
        "re"
      ],
      [
        "Ġfi",
        "x"
      ],
      [
        "Ġt",
        "ired"
      ],
      [
        "Ġb",
        "unny"
      ],
      [
        "Ġus",
        "ed"
      ],
      [
        "Ġloo",
        "king"
      ],
      [
        "Ġb",
        "us"
      ],
      [
        "an",
        "ge"
      ],
      [
        "a",
        "ir"
      ],
      [
        "Ġwor",
        "k"
      ],
      [
        "Ġw",
        "r"
      ],
      [
        "t",
        "ing"
      ],
      [
        "Ġ",
        "our"
      ],
      [
        "Ġp",
        "ull"
      ],
      [
        "W",
        "e"
      ],
      [
        "Ġth",
        "r"
      ],
      [
        "Th",
        "at"
      ],
      [
        "t",
        "hing"
      ],
      [
        "Ġwa",
        "it"
      ],
      [
        "Ġk",
        "it"
      ],
      [
        "Ġs",
        "ound"
      ],
      [
        "Ġj",
        "o"
      ],
      [
        "Ġha",
        "s"
      ],
      [
        "Ġme",
        "an"
      ],
      [
        "Ġpo",
        "nd"
      ],
      [
        "em",
        "ber"
      ],
      [
        "Ġbe",
        "h"
      ],
      [
        "Ġd",
        "r"
      ],
      [
        "Ġsun",
        "ny"
      ],
      [
        "l",
        "ed"
      ],
      [
        "Ġother",
        "s"
      ],
      [
        "Ġas",
        "k"
      ],
      [
        "n",
        "g"
      ],
      [
        "c",
        "hen"
      ],
      [
        "Ġkit",
        "chen"
      ],
      [
        "Ġtal",
        "k"
      ],
      [
        "Ġfl",
        "o"
      ],
      [
        "Ġd",
        "if"
      ],
      [
        "Ġp",
        "ie"
      ],
      [
        "re",
        "w"
      ],
      [
        "Ġhe",
        "ad"
      ],
      [
        "Ġre",
        "al"
      ],
      [
        "Ġf",
        "irst"
      ],
      [
        "Ġt",
        "ri"
      ],
      [
        "Ġmom",
        "my"
      ],
      [
        "Ġey",
        "es"
      ],
      [
        "ell",
        "o"
      ],
      [
        "Ġimp",
        "ort"
      ],
      [
        "H",
        "ello"
      ],
      [
        "M",
        "om"
      ],
      [
        "Ġfa",
        "v"
      ],
      [
        "ĠD",
        "o"
      ],
      [
        "j",
        "oy"
      ],
      [
        "Ġ",
        "z"
      ],
      [
        "Ġrem",
        "ember"
      ],
      [
        "Ġr",
        "ight"
      ],
      [
        "Ġflow",
        "er"
      ],
      [
        "Ġc",
        "on"
      ],
      [
        "Ġm",
        "ess"
      ],
      [
        "ĠW",
        "h"
      ],
      [
        "Ġpar",
        "ty"
      ],
      [
        "Ġco",
        "ld"
      ],
      [
        "Ġv",
        "o"
      ],
      [
        "Ġsw",
        "e"
      ],
      [
        "i",
        "ous"
      ],
      [
        "f",
        "t"
      ],
      [
        "Ġsa",
        "nd"
      ],
      [
        "a",
        "c"
      ],
      [
        "at",
        "h"
      ],
      [
        "or",
        "n"
      ],
      [
        "Ġr",
        "ace"
      ],
      [
        "Ġcu",
        "ri"
      ],
      [
        "im",
        "es"
      ],
      [
        "Ġimport",
        "ant"
      ],
      [
        "Ġd",
        "uck"
      ],
      [
        "Ġmor",
        "al"
      ],
      [
        "Ġsh",
        "ared"
      ],
      [
        "z",
        "y"
      ],
      [
        "ou",
        "nt"
      ],
      [
        "Ġ",
        "ice"
      ],
      [
        "Ġo",
        "kay"
      ],
      [
        "Ġad",
        "vent"
      ],
      [
        "Ġwor",
        "ked"
      ],
      [
        "ll",
        "ow"
      ],
      [
        "ir",
        "t"
      ],
      [
        "Ġen",
        "joy"
      ],
      [
        "Ġd",
        "ress"
      ],
      [
        "Ġbr",
        "ight"
      ],
      [
        "Ġm",
        "aking"
      ],
      [
        "Ġcuri",
        "ous"
      ],
      [
        "Ġ",
        "own"
      ],
      [
        "ĠD",
        "ad"
      ],
      [
        "Ġt",
        "all"
      ],
      [
        "Ġh",
        "op"
      ],
      [
        "re",
        "ed"
      ],
      [
        "Ġh",
        "id"
      ],
      [
        "Ġfav",
        "or"
      ],
      [
        "Ġ",
        "ri"
      ],
      [
        "h",
        "n"
      ],
      [
        "Ġs",
        "leep"
      ],
      [
        "Ġd",
        "is"
      ],
      [
        "Ġfavor",
        "ite"
      ],
      [
        "W",
        "ow"
      ],
      [
        "Ġth",
        "ing"
      ],
      [
        "Ġbe",
        "gan"
      ],
      [
        "Ġm",
        "on"
      ],
      [
        "Ġb",
        "ag"
      ],
      [
        "Ġh",
        "ill"
      ],
      [
        "Ġcl",
        "a"
      ],
      [
        "D",
        "on"
      ],
      [
        "Ġdra",
        "w"
      ],
      [
        "Ġre",
        "st"
      ],
      [
        "Ġhe",
        "re"
      ],
      [
        "Ġy",
        "ard"
      ],
      [
        "ĠTh",
        "is"
      ],
      [
        "Ġt",
        "ell"
      ],
      [
        "ĠJo",
        "hn"
      ],
      [
        "st",
        "er"
      ],
      [
        "Ġwat",
        "ched"
      ],
      [
        "q",
        "ue"
      ],
      [
        "Ġfo",
        "llow"
      ],
      [
        "Ġmo",
        "ve"
      ],
      [
        "Ġbe",
        "l"
      ],
      [
        "ec",
        "t"
      ],
      [
        "Ġc",
        "ut"
      ],
      [
        "Ġn",
        "ight"
      ],
      [
        "Ġag",
        "reed"
      ],
      [
        "Ġp",
        "ick"
      ],
      [
        "c",
        "o"
      ],
      [
        "Ġbl",
        "ock"
      ],
      [
        "Ġh",
        "un"
      ],
      [
        "ap",
        "er"
      ],
      [
        "ll",
        "y"
      ],
      [
        "Ġst",
        "op"
      ],
      [
        "Ġbeh",
        "ind"
      ],
      [
        "Ġsurpr",
        "ise"
      ],
      [
        "i",
        "ed"
      ],
      [
        "Ġsh",
        "o"
      ],
      [
        "Ġh",
        "ot"
      ],
      [
        "Ġt",
        "able"
      ],
      [
        "Ġgra",
        "ss"
      ],
      [
        "Ġwor",
        "ry"
      ],
      [
        "Ġd",
        "ark"
      ],
      [
        "Ġtre",
        "es"
      ],
      [
        "Ġvo",
        "ice"
      ],
      [
        "Ġwal",
        "king"
      ],
      [
        "fe",
        "re"
      ],
      [
        "Ġflo",
        "or"
      ],
      [
        "Ġfar",
        "m"
      ],
      [
        "Ġli",
        "on"
      ],
      [
        "Ġto",
        "p"
      ],
      [
        "Ġdif",
        "fere"
      ],
      [
        "Ġp",
        "lease"
      ],
      [
        "ĠT",
        "hat"
      ],
      [
        "ĠM",
        "r"
      ],
      [
        "Ġr",
        "u"
      ],
      [
        "Ġs",
        "ong"
      ],
      [
        "ĠBob",
        "o"
      ],
      [
        "Ġbut",
        "ter"
      ],
      [
        "Ġt",
        "ail"
      ],
      [
        "Ġswe",
        "et"
      ],
      [
        "Ġsh",
        "out"
      ],
      [
        "Ġcolor",
        "s"
      ],
      [
        "Ġre",
        "ad"
      ],
      [
        "Ġl",
        "ady"
      ],
      [
        "Ġfor",
        "g"
      ],
      [
        "is",
        "y"
      ],
      [
        "ĠJ",
        "ane"
      ],
      [
        "Ġleave",
        "s"
      ],
      [
        "Ġclos",
        "er"
      ],
      [
        "ig",
        "n"
      ],
      [
        "Ġcar",
        "s"
      ],
      [
        "ĠTim",
        "my"
      ],
      [
        "Ġturn",
        "ed"
      ],
      [
        "Ġneed",
        "ed"
      ],
      [
        "Ġt",
        "ast"
      ],
      [
        "W",
        "hy"
      ],
      [
        "ar",
        "ing"
      ],
      [
        "Ġw",
        "ood"
      ],
      [
        "Ġc",
        "ried"
      ],
      [
        "Ġdiffere",
        "nt"
      ],
      [
        "Ġlaug",
        "h"
      ],
      [
        "Ġd",
        "el"
      ],
      [
        "Ġpie",
        "ce"
      ],
      [
        "âĢ",
        "Ļ"
      ],
      [
        "er",
        "ed"
      ],
      [
        "Ġro",
        "ll"
      ],
      [
        "Ġadvent",
        "ure"
      ],
      [
        "Ġfi",
        "re"
      ],
      [
        "Ġdo",
        "es"
      ],
      [
        "i",
        "ke"
      ],
      [
        "Ġc",
        "r"
      ],
      [
        "Ġhun",
        "gry"
      ],
      [
        "Ġha",
        "ir"
      ],
      [
        "Ġp",
        "aper"
      ],
      [
        "Ġfeel",
        "ing"
      ],
      [
        "Ġyell",
        "ow"
      ],
      [
        "Ġf",
        "ull"
      ],
      [
        "b",
        "o"
      ],
      [
        "Ġpr",
        "in"
      ],
      [
        "Ġto",
        "uch"
      ],
      [
        "Ġw",
        "et"
      ],
      [
        "Ġfriend",
        "ly"
      ],
      [
        "Ġp",
        "er"
      ],
      [
        "o",
        "om"
      ],
      [
        "k",
        "en"
      ],
      [
        "c",
        "ked"
      ],
      [
        "ĠMom",
        "my"
      ],
      [
        "a",
        "ched"
      ],
      [
        "Ġsw",
        "ing"
      ],
      [
        "Ġfr",
        "uit"
      ],
      [
        "i",
        "ent"
      ],
      [
        "Ġbro",
        "ken"
      ],
      [
        "Ġre",
        "ady"
      ],
      [
        "ĠA",
        "ll"
      ],
      [
        "by",
        "e"
      ],
      [
        "pp",
        "y"
      ],
      [
        "Ġpr",
        "om"
      ],
      [
        "Ġan",
        "other"
      ],
      [
        "Ġl",
        "ight"
      ],
      [
        "Ġpret",
        "end"
      ],
      [
        "Ġdan",
        "ce"
      ],
      [
        "at",
        "er"
      ],
      [
        "Ġclimb",
        "ed"
      ],
      [
        "w",
        "here"
      ],
      [
        "Ġlist",
        "ened"
      ],
      [
        "Ġdan",
        "c"
      ],
      [
        "Ġrun",
        "ning"
      ],
      [
        "Ġon",
        "ly"
      ],
      [
        "Ġpl",
        "an"
      ],
      [
        "Ġg",
        "one"
      ],
      [
        "Ġsw",
        "im"
      ],
      [
        "bb",
        "ed"
      ],
      [
        "Ġtra",
        "in"
      ],
      [
        "il",
        "a"
      ],
      [
        "nd",
        "ma"
      ],
      [
        "s",
        "h"
      ],
      [
        "Ġclo",
        "se"
      ],
      [
        "a",
        "v"
      ],
      [
        "ar",
        "t"
      ],
      [
        "Ġsm",
        "ell"
      ],
      [
        "ab",
        "y"
      ],
      [
        "Ġam",
        "az"
      ],
      [
        "Ġho",
        "ld"
      ],
      [
        "Ġblock",
        "s"
      ],
      [
        "Ġwo",
        "nder"
      ],
      [
        "Ġre",
        "pl"
      ],
      [
        "ĠEvery",
        "one"
      ],
      [
        "ĠL",
        "ila"
      ],
      [
        "Ġbutter",
        "f"
      ],
      [
        "Ġse",
        "es"
      ],
      [
        "Ġre",
        "ached"
      ],
      [
        "Ġwa",
        "ll"
      ],
      [
        "Ġp",
        "u"
      ],
      [
        "one",
        "y"
      ],
      [
        "Ġsl",
        "ow"
      ],
      [
        "Ġhelp",
        "ing"
      ],
      [
        "Ġd",
        "ri"
      ],
      [
        "Ġc",
        "ream"
      ],
      [
        "Ġc",
        "ool"
      ],
      [
        "Ġgl",
        "ad"
      ],
      [
        "a",
        "f"
      ],
      [
        "Ġa",
        "nt"
      ],
      [
        "Ġl",
        "ess"
      ],
      [
        "Ġbe",
        "en"
      ],
      [
        "Ġgood",
        "bye"
      ],
      [
        "Ġa",
        "c"
      ],
      [
        "Ġf",
        "ight"
      ],
      [
        "at",
        "her"
      ],
      [
        "e",
        "y"
      ],
      [
        "Ġpus",
        "hed"
      ],
      [
        "ic",
        "ed"
      ],
      [
        "Ġfa",
        "ir"
      ],
      [
        "Ġmu",
        "st"
      ],
      [
        "Ġh",
        "ide"
      ],
      [
        "Ġmom",
        "ent"
      ],
      [
        "Ġwind",
        "ow"
      ],
      [
        "Ġs",
        "it"
      ],
      [
        "Ġa",
        "r"
      ],
      [
        "Ġball",
        "oon"
      ],
      [
        "Ġsn",
        "ow"
      ],
      [
        "Ġch",
        "ild"
      ],
      [
        "Ġexpl",
        "ore"
      ],
      [
        "Ġw",
        "ished"
      ],
      [
        "Ġb",
        "aby"
      ],
      [
        "Ġd",
        "one"
      ],
      [
        "Ġwa",
        "g"
      ],
      [
        "Ġst",
        "e"
      ],
      [
        "Ġbu",
        "y"
      ],
      [
        "Ġst",
        "uck"
      ],
      [
        "Ġper",
        "f"
      ],
      [
        "ĠJ",
        "ust"
      ],
      [
        "ĠSo",
        "on"
      ],
      [
        "Ġth",
        "ank"
      ],
      [
        "Ġm",
        "ight"
      ],
      [
        "ic",
        "y"
      ],
      [
        "Ġnam",
        "e"
      ],
      [
        "iz",
        "ed"
      ],
      [
        "Ġtry",
        "ing"
      ],
      [
        "Ġb",
        "it"
      ],
      [
        "Ġcom",
        "ing"
      ],
      [
        "Ġb",
        "ar"
      ],
      [
        "Ġqu",
        "ick"
      ],
      [
        "Ġf",
        "all"
      ],
      [
        "Ġapp",
        "le"
      ],
      [
        "ĠT",
        "o"
      ],
      [
        "Ġsc",
        "ary"
      ],
      [
        "as",
        "h"
      ],
      [
        "Ġlook",
        "s"
      ],
      [
        "Ġbu",
        "ild"
      ],
      [
        "Ġdo",
        "ing"
      ],
      [
        "ir",
        "ty"
      ],
      [
        "Ġw",
        "in"
      ],
      [
        "Ġunder",
        "st"
      ],
      [
        "a",
        "isy"
      ],
      [
        "Ġd",
        "in"
      ],
      [
        "Ġd",
        "ream"
      ],
      [
        "ĠThe",
        "re"
      ],
      [
        "Ġd",
        "irty"
      ],
      [
        "Ġhe",
        "ld"
      ],
      [
        "am",
        "es"
      ],
      [
        "Ġbook",
        "s"
      ],
      [
        "Ġm",
        "ar"
      ],
      [
        "Ġbutterf",
        "ly"
      ],
      [
        "Ġle",
        "ft"
      ],
      [
        "Ġshout",
        "ed"
      ],
      [
        "Ġc",
        "ount"
      ],
      [
        "Ġrepl",
        "ied"
      ],
      [
        "av",
        "y"
      ],
      [
        "Ġre",
        "ach"
      ],
      [
        "Ġt",
        "iny"
      ],
      [
        "Ġthr",
        "ough"
      ],
      [
        "ot",
        "t"
      ],
      [
        "Ġd",
        "ro"
      ],
      [
        "Ġwh",
        "y"
      ],
      [
        "Ġa",
        "ir"
      ],
      [
        "Ġbr",
        "an"
      ],
      [
        "Ġla",
        "nd"
      ],
      [
        "ke",
        "y"
      ],
      [
        "Ġth",
        "ree"
      ],
      [
        "Ġpull",
        "ed"
      ],
      [
        "Ġsp",
        "l"
      ],
      [
        "Ġgr",
        "ow"
      ],
      [
        "Ġtre",
        "at"
      ],
      [
        "Ġbr",
        "other"
      ],
      [
        "Ġw",
        "ise"
      ],
      [
        "Ġwood",
        "s"
      ],
      [
        "Ġs",
        "ure"
      ],
      [
        "'",
        "re"
      ],
      [
        "Ġch",
        "air"
      ],
      [
        "i",
        "x"
      ],
      [
        "Ġm",
        "at"
      ],
      [
        "in",
        "s"
      ],
      [
        "Ġse",
        "en"
      ],
      [
        "Ġp",
        "ink"
      ],
      [
        "Ġcla",
        "pped"
      ],
      [
        "Ġpl",
        "ant"
      ],
      [
        "el",
        "y"
      ],
      [
        "Ġ",
        "owl"
      ],
      [
        "Ġcu",
        "p"
      ],
      [
        "ie",
        "ld"
      ],
      [
        "Ġsomet",
        "imes"
      ],
      [
        "and",
        "y"
      ],
      [
        "Ġf",
        "ill"
      ],
      [
        "Ġcl",
        "oud"
      ],
      [
        "as",
        "k"
      ],
      [
        "Ġsw",
        "am"
      ],
      [
        "out",
        "h"
      ],
      [
        "Ġj",
        "ob"
      ],
      [
        "Ġcolor",
        "ful"
      ],
      [
        "ĠIn",
        "side"
      ],
      [
        "Ġremember",
        "ed"
      ],
      [
        "Ġbig",
        "ger"
      ],
      [
        "Ġne",
        "st"
      ],
      [
        "Ġm",
        "outh"
      ],
      [
        "O",
        "kay"
      ],
      [
        "Ġless",
        "on"
      ],
      [
        "Ġjo",
        "in"
      ],
      [
        "Ġc",
        "re"
      ],
      [
        "p",
        "h"
      ],
      [
        "ou",
        "p"
      ],
      [
        "ro",
        "om"
      ],
      [
        "Ġwa",
        "ved"
      ],
      [
        "udd",
        "y"
      ],
      [
        "Ġgra",
        "bbed"
      ],
      [
        "Ġstay",
        "ed"
      ],
      [
        "O",
        "h"
      ],
      [
        "Ġpain",
        "t"
      ],
      [
        "Ġcl",
        "ot"
      ],
      [
        "Ġcon",
        "t"
      ],
      [
        "Ġclot",
        "hes"
      ],
      [
        "ow",
        "er"
      ],
      [
        "ĠD",
        "aisy"
      ],
      [
        "Ġwa",
        "ited"
      ],
      [
        "Ġquick",
        "ly"
      ],
      [
        "c",
        "le"
      ],
      [
        "Ġwor",
        "d"
      ],
      [
        "Ġbro",
        "ke"
      ],
      [
        "uck",
        "y"
      ],
      [
        "Ġg",
        "ames"
      ],
      [
        "Ġc",
        "ast"
      ],
      [
        "ĠB",
        "uddy"
      ],
      [
        "Ġb",
        "lew"
      ],
      [
        "Ġg",
        "ent"
      ],
      [
        "ĠFin",
        "ally"
      ],
      [
        "ĠWh",
        "ile"
      ],
      [
        "Ġenjoy",
        "ed"
      ],
      [
        "Ġnot",
        "iced"
      ],
      [
        "ri",
        "es"
      ],
      [
        "at",
        "ion"
      ],
      [
        "Ġs",
        "et"
      ],
      [
        "Ġlike",
        "s"
      ],
      [
        "Ġpicture",
        "s"
      ],
      [
        "Ġmu",
        "s"
      ],
      [
        "t",
        "on"
      ],
      [
        "d",
        "e"
      ],
      [
        "Ġse",
        "a"
      ],
      [
        "Ġhe",
        "avy"
      ],
      [
        "Ġal",
        "one"
      ],
      [
        "Ġg",
        "if"
      ],
      [
        "as",
        "ure"
      ],
      [
        "Ġany",
        "thing"
      ],
      [
        "Ġsp",
        "ot"
      ],
      [
        "Ġm",
        "iss"
      ],
      [
        "Ġho",
        "pped"
      ],
      [
        "Ġwor",
        "ld"
      ],
      [
        "Ġturn",
        "s"
      ],
      [
        "or",
        "m"
      ],
      [
        "Ġy",
        "ear"
      ],
      [
        "d",
        "er"
      ],
      [
        "Ġb",
        "ott"
      ],
      [
        "Ġp",
        "at"
      ],
      [
        "Ġp",
        "ot"
      ],
      [
        "Th",
        "is"
      ],
      [
        "Ġp",
        "en"
      ],
      [
        "l",
        "c"
      ],
      [
        "ĠSara",
        "h"
      ],
      [
        "Ġm",
        "ix"
      ],
      [
        "Ġa",
        "rm"
      ],
      [
        "Ġb",
        "ike"
      ],
      [
        "Ġt",
        "ight"
      ],
      [
        "ĠTom",
        "my"
      ],
      [
        "Ġevery",
        "where"
      ],
      [
        "Ġw",
        "on"
      ],
      [
        "Ġtow",
        "er"
      ],
      [
        "Ġth",
        "rew"
      ],
      [
        "Ġhim",
        "self"
      ],
      [
        "Ġfollow",
        "ed"
      ],
      [
        "Ġr",
        "ide"
      ],
      [
        "m",
        "an"
      ],
      [
        "e",
        "re"
      ],
      [
        "p",
        "e"
      ],
      [
        "le",
        "ss"
      ],
      [
        "Ġj",
        "u"
      ],
      [
        "Ġj",
        "e"
      ],
      [
        "am",
        "p"
      ],
      [
        "ap",
        "e"
      ],
      [
        "Ġcom",
        "p"
      ],
      [
        "Ġke",
        "y"
      ],
      [
        "ed",
        "dy"
      ],
      [
        "r",
        "ow"
      ],
      [
        "ĠW",
        "hat"
      ],
      [
        "\"",
        "."
      ],
      [
        "Ġwh",
        "ite"
      ],
      [
        "ct",
        "or"
      ],
      [
        "Ġwr",
        "ong"
      ],
      [
        "Ġmake",
        "s"
      ],
      [
        "Ġbre",
        "ak"
      ],
      [
        "Ġbl",
        "ack"
      ],
      [
        "are",
        "nt"
      ],
      [
        "e",
        "e"
      ],
      [
        "n",
        "er"
      ],
      [
        "Ġde",
        "ep"
      ],
      [
        "t",
        "hy"
      ],
      [
        "Ġmus",
        "ic"
      ],
      [
        "ĠE",
        "m"
      ],
      [
        "Ġpo",
        "l"
      ],
      [
        "Ġdel",
        "ic"
      ],
      [
        "ce",
        "ss"
      ],
      [
        "u",
        "ed"
      ],
      [
        "Ġforg",
        "ot"
      ],
      [
        "Ġbe",
        "e"
      ],
      [
        "Ġp",
        "arent"
      ],
      [
        "o",
        "lly"
      ],
      [
        "Ġcast",
        "le"
      ],
      [
        "ve",
        "s"
      ],
      [
        "Ġe",
        "m"
      ],
      [
        "D",
        "o"
      ],
      [
        "i",
        "et"
      ],
      [
        "Ġwe",
        "ar"
      ],
      [
        "Ġh",
        "it"
      ],
      [
        "Ġ",
        "ve"
      ],
      [
        "is",
        "ter"
      ],
      [
        "ou",
        "n"
      ],
      [
        "Ġqu",
        "iet"
      ],
      [
        "Ġr",
        "ound"
      ],
      [
        "ĠB",
        "illy"
      ],
      [
        "an",
        "ce"
      ],
      [
        "Ġst",
        "u"
      ],
      [
        "Ġdanc",
        "ed"
      ],
      [
        "Ġv",
        "is"
      ],
      [
        "ull",
        "y"
      ],
      [
        "Ġwant",
        "s"
      ],
      [
        "Ġle",
        "af"
      ],
      [
        "Ġmon",
        "ster"
      ],
      [
        "Ġn",
        "ap"
      ],
      [
        "Ġunderst",
        "and"
      ],
      [
        "an",
        "g"
      ],
      [
        "Ġb",
        "owl"
      ],
      [
        "o",
        "s"
      ],
      [
        "r",
        "ot"
      ],
      [
        "Ġb",
        "or"
      ],
      [
        "Ġtal",
        "ked"
      ],
      [
        "itt",
        "en"
      ],
      [
        "re",
        "n"
      ],
      [
        "Ġd",
        "ry"
      ],
      [
        "Ġfast",
        "er"
      ],
      [
        "Ġcook",
        "ies"
      ],
      [
        "ĠG",
        "ra"
      ],
      [
        "ĠJo",
        "e"
      ],
      [
        "Ġbr",
        "ought"
      ],
      [
        "f",
        "ully"
      ],
      [
        "Ġle",
        "g"
      ],
      [
        "ro",
        "ss"
      ],
      [
        "Ġm",
        "um"
      ],
      [
        "z",
        "z"
      ],
      [
        "Ġs",
        "ide"
      ],
      [
        "Ġs",
        "ign"
      ],
      [
        "Ġsm",
        "art"
      ],
      [
        "c",
        "y"
      ],
      [
        "Ġrock",
        "s"
      ],
      [
        "Ġsome",
        "one"
      ],
      [
        "Ġpo",
        "in"
      ],
      [
        "Ġse",
        "c"
      ],
      [
        "Ġsh",
        "aring"
      ],
      [
        "Ġfo",
        "x"
      ],
      [
        "Ġwe",
        "ll"
      ],
      [
        "Ġre",
        "s"
      ],
      [
        "Ġre",
        "l"
      ],
      [
        "Ġhapp",
        "en"
      ],
      [
        "Ġbut",
        "ton"
      ],
      [
        "Ġbran",
        "ch"
      ],
      [
        "Ġre",
        "ally"
      ],
      [
        "Ġfin",
        "ished"
      ],
      [
        "en",
        "ce"
      ],
      [
        "ard",
        "s"
      ],
      [
        "Ġdin",
        "ner"
      ],
      [
        "Ġs",
        "ister"
      ],
      [
        "Ġfly",
        "ing"
      ],
      [
        "Ġcont",
        "in"
      ],
      [
        "Ġwor",
        "ried"
      ],
      [
        "Ġe",
        "le"
      ],
      [
        "Ġ",
        "Z"
      ],
      [
        "Ġvis",
        "it"
      ],
      [
        "ĠM",
        "aybe"
      ],
      [
        "Ġbe",
        "ach"
      ],
      [
        "Ġ",
        "que"
      ],
      [
        "t",
        "h"
      ],
      [
        "Ġsec",
        "ret"
      ],
      [
        "Ġe",
        "l"
      ],
      [
        "Ġk",
        "ing"
      ],
      [
        "Ġgif",
        "t"
      ],
      [
        "g",
        "y"
      ],
      [
        "Ġto",
        "day"
      ],
      [
        "Ġperf",
        "ect"
      ],
      [
        "Ġri",
        "ver"
      ],
      [
        "Ġevery",
        "thing"
      ],
      [
        "Ġs",
        "illy"
      ],
      [
        "Ġsh",
        "in"
      ],
      [
        "i",
        "pp"
      ],
      [
        "Ġdan",
        "ger"
      ],
      [
        "Ġchild",
        "ren"
      ],
      [
        "Ġg",
        "u"
      ],
      [
        "Ġf",
        "ield"
      ],
      [
        "Ġfill",
        "ed"
      ],
      [
        "Ġf",
        "ur"
      ],
      [
        "Ġel",
        "se"
      ],
      [
        "Ġsmile",
        "s"
      ],
      [
        "Ġwe",
        "lc"
      ],
      [
        "Ġw",
        "ish"
      ],
      [
        "Ġsa",
        "ng"
      ],
      [
        "Ġg",
        "i"
      ],
      [
        "z",
        "e"
      ],
      [
        "Ġp",
        "udd"
      ],
      [
        "Ġsn",
        "ack"
      ],
      [
        "Ġeat",
        "ing"
      ],
      [
        "Ġreal",
        "ized"
      ],
      [
        "Ġpiece",
        "s"
      ],
      [
        "Ġprom",
        "ised"
      ],
      [
        "ĠC",
        "h"
      ],
      [
        "or",
        "d"
      ],
      [
        "Ġsp",
        "r"
      ],
      [
        "Ġp",
        "ig"
      ],
      [
        "Ġf",
        "ree"
      ],
      [
        "Ġcontin",
        "ued"
      ],
      [
        "Ġstar",
        "t"
      ],
      [
        "Ġb",
        "ite"
      ],
      [
        "e",
        "ad"
      ],
      [
        "Ġparent",
        "s"
      ],
      [
        "Ġcare",
        "fully"
      ],
      [
        "at",
        "ed"
      ],
      [
        "itt",
        "ing"
      ],
      [
        "Ġj",
        "ar"
      ],
      [
        "Ġc",
        "ow"
      ],
      [
        "M",
        "aybe"
      ],
      [
        "Ġbl",
        "ank"
      ],
      [
        "Ġdra",
        "g"
      ],
      [
        "st",
        "ead"
      ],
      [
        "Ġor",
        "ange"
      ],
      [
        "Ġmu",
        "d"
      ],
      [
        "Ġcry",
        "ing"
      ],
      [
        "Ġblank",
        "et"
      ],
      [
        "Ġen",
        "ough"
      ],
      [
        "Ġroll",
        "ed"
      ],
      [
        "ck",
        "et"
      ],
      [
        "Ġs",
        "oup"
      ],
      [
        "Ġsa",
        "il"
      ],
      [
        "Ġp",
        "urp"
      ],
      [
        "im",
        "i"
      ],
      [
        "Ġy",
        "es"
      ],
      [
        "a",
        "le"
      ],
      [
        "Ġdr",
        "ink"
      ],
      [
        "Ġsn",
        "ake"
      ],
      [
        "se",
        "s"
      ],
      [
        "Ġb",
        "oun"
      ],
      [
        "Ġp",
        "et"
      ],
      [
        "Ġcra",
        "b"
      ],
      [
        "Ġlaug",
        "hing"
      ],
      [
        "Ġthr",
        "ow"
      ],
      [
        "Ġfair",
        "y"
      ],
      [
        "Ġword",
        "s"
      ],
      [
        "Ġamaz",
        "ing"
      ],
      [
        "ĠJ",
        "im"
      ],
      [
        "Ġb",
        "ath"
      ],
      [
        "i",
        "ch"
      ],
      [
        "Ġpurp",
        "le"
      ],
      [
        "ĠJ",
        "en"
      ],
      [
        "Ġwith",
        "out"
      ],
      [
        "i",
        "re"
      ],
      [
        "ĠM",
        "imi"
      ],
      [
        "Ġbott",
        "le"
      ],
      [
        "Ġgra",
        "ndma"
      ],
      [
        "us",
        "ed"
      ],
      [
        "on",
        "s"
      ],
      [
        "Ġp",
        "ast"
      ],
      [
        "Ġm",
        "oney"
      ],
      [
        "i",
        "ver"
      ],
      [
        "f",
        "ort"
      ],
      [
        "Ġm",
        "ail"
      ],
      [
        "Ġbar",
        "ked"
      ],
      [
        "Ġwag",
        "ged"
      ],
      [
        "Ġat",
        "t"
      ],
      [
        "ch",
        "ool"
      ],
      [
        "Ġmon",
        "key"
      ],
      [
        "Ġdo",
        "ctor"
      ],
      [
        "un",
        "ch"
      ],
      [
        "Ġbr",
        "own"
      ],
      [
        "Ġmo",
        "ved"
      ],
      [
        "is",
        "es"
      ],
      [
        "Ġask",
        "s"
      ],
      [
        "ĠB",
        "l"
      ],
      [
        "Ġget",
        "ting"
      ],
      [
        "Ġclos",
        "ed"
      ],
      [
        "Ġw",
        "he"
      ],
      [
        "Ġwelc",
        "ome"
      ],
      [
        "Ġs",
        "u"
      ],
      [
        "Ġc",
        "andy"
      ],
      [
        "Ġs",
        "chool"
      ],
      [
        "Ġmor",
        "ning"
      ],
      [
        "Ġown",
        "er"
      ],
      [
        "g",
        "g"
      ],
      [
        "Ġl",
        "on"
      ],
      [
        "Ġm",
        "other"
      ],
      [
        "Ġhig",
        "her"
      ],
      [
        "Ġs",
        "itting"
      ],
      [
        "Ġtre",
        "asure"
      ],
      [
        ".",
        "âĢĿ"
      ],
      [
        "Ġsm",
        "o"
      ],
      [
        "!",
        "âĢĿ"
      ],
      [
        "Ġdanger",
        "ous"
      ],
      [
        "Ġlon",
        "ely"
      ],
      [
        "Ġli",
        "ving"
      ],
      [
        "Ġapp",
        "les"
      ],
      [
        "Ġsh",
        "op"
      ],
      [
        "as",
        "ed"
      ],
      [
        "Ġstr",
        "ange"
      ],
      [
        "ve",
        "l"
      ],
      [
        "us",
        "h"
      ],
      [
        "Ġshin",
        "ing"
      ],
      [
        "Ġro",
        "ad"
      ],
      [
        "Ġcre",
        "at"
      ],
      [
        "un",
        "a"
      ],
      [
        "Ġpa",
        "w"
      ],
      [
        "Ġ",
        "-"
      ],
      [
        "Ġr",
        "a"
      ],
      [
        "Ġsho",
        "es"
      ],
      [
        "Ġp",
        "re"
      ],
      [
        "i",
        "ble"
      ],
      [
        "Ġst",
        "re"
      ],
      [
        "Ġtal",
        "king"
      ],
      [
        "al",
        "thy"
      ],
      [
        "Ġc",
        "aught"
      ],
      [
        "Ġe",
        "gg"
      ],
      [
        "o",
        "l"
      ],
      [
        "Ġpa",
        "ss"
      ],
      [
        "m",
        "e"
      ],
      [
        "Ġl",
        "ake"
      ],
      [
        "Ġrun",
        "s"
      ],
      [
        "Ġb",
        "uck"
      ],
      [
        "Ġl",
        "etter"
      ],
      [
        "Ġw",
        "ings"
      ],
      [
        "Ġche",
        "e"
      ],
      [
        "f",
        "ish"
      ],
      [
        "Ġm",
        "ad"
      ],
      [
        "Ġf",
        "an"
      ],
      [
        "ask",
        "et"
      ],
      [
        "Ġb",
        "asket"
      ],
      [
        "a",
        "ss"
      ],
      [
        "Ġdrag",
        "on"
      ],
      [
        "a",
        "pp"
      ],
      [
        "B",
        "ut"
      ],
      [
        "s",
        "et"
      ],
      [
        "ck",
        "s"
      ],
      [
        "Ġst",
        "one"
      ],
      [
        "Ġthink",
        "s"
      ],
      [
        "T",
        "im"
      ],
      [
        "Ġst",
        "and"
      ],
      [
        "Ġdelic",
        "ious"
      ],
      [
        "Ġno",
        "se"
      ],
      [
        "Ġpudd",
        "le"
      ],
      [
        "Ġto",
        "m"
      ],
      [
        "Ġbel",
        "ie"
      ],
      [
        "Ġfarm",
        "er"
      ],
      [
        "Ġsa",
        "me"
      ],
      [
        "Ġyear",
        "s"
      ],
      [
        "bo",
        "ard"
      ],
      [
        "Ġt",
        "eddy"
      ],
      [
        "Ġb",
        "at"
      ],
      [
        "is",
        "k"
      ],
      [
        "it",
        "ch"
      ],
      [
        "Ġm",
        "ine"
      ],
      [
        "Ġse",
        "ar"
      ],
      [
        "Ġco",
        "at"
      ],
      [
        "c",
        "hes"
      ],
      [
        "ĠEm",
        "ma"
      ],
      [
        "ig",
        "h"
      ],
      [
        "Ġday",
        "s"
      ],
      [
        "Ġbr",
        "ing"
      ],
      [
        "Ġgent",
        "le"
      ],
      [
        "Ġf",
        "it"
      ],
      [
        "ĠTo",
        "gether"
      ],
      [
        "Ġfin",
        "ally"
      ],
      [
        "Ġwh",
        "ist"
      ],
      [
        "ar",
        "s"
      ],
      [
        "Ġcr",
        "ay"
      ],
      [
        "ig",
        "g"
      ],
      [
        "Ġsc",
        "ream"
      ],
      [
        "Ġk",
        "ite"
      ],
      [
        "ĠM",
        "olly"
      ],
      [
        "Ġhear",
        "t"
      ],
      [
        "Ġp",
        "ill"
      ],
      [
        "ph",
        "ant"
      ],
      [
        "ar",
        "m"
      ],
      [
        "ĠR",
        "e"
      ],
      [
        "Ġv",
        "ill"
      ],
      [
        "Ġch",
        "o"
      ],
      [
        "Ġsing",
        "ing"
      ],
      [
        "T",
        "he"
      ],
      [
        "ell",
        "a"
      ],
      [
        "s",
        "w"
      ],
      [
        "in",
        "ed"
      ],
      [
        "Ġtast",
        "y"
      ],
      [
        "Ġb",
        "en"
      ],
      [
        "Ġp",
        "h"
      ],
      [
        "Ġtr",
        "ou"
      ],
      [
        "Ġshe",
        "ll"
      ],
      [
        "Ġher",
        "self"
      ],
      [
        "Ġhop",
        "ed"
      ],
      [
        "Ġan",
        "sw"
      ],
      [
        "Ġw",
        "ore"
      ],
      [
        "Ġsw",
        "ings"
      ],
      [
        "s",
        "y"
      ],
      [
        "Ġh",
        "or"
      ],
      [
        "Ġbel",
        "ong"
      ],
      [
        "P",
        "lease"
      ],
      [
        "Ġpus",
        "h"
      ],
      [
        "isk",
        "ers"
      ],
      [
        "Ġcar",
        "rot"
      ],
      [
        "Ġar",
        "ri"
      ],
      [
        "aught",
        "y"
      ],
      [
        "Ġte",
        "ach"
      ],
      [
        "ĠBl",
        "ue"
      ],
      [
        "b",
        "ow"
      ],
      [
        "ra",
        "ct"
      ],
      [
        "Ġn",
        "aughty"
      ],
      [
        "Ġbus",
        "h"
      ],
      [
        "Ġele",
        "phant"
      ],
      [
        "Ġdro",
        "pped"
      ],
      [
        "Ġsh",
        "ap"
      ],
      [
        "i",
        "er"
      ],
      [
        "Ġco",
        "ll"
      ],
      [
        "s",
        "c"
      ],
      [
        "Ġte",
        "ac"
      ],
      [
        "Ġwo",
        "ke"
      ],
      [
        "r",
        "ed"
      ],
      [
        "b",
        "all"
      ],
      [
        "Ġp",
        "ile"
      ],
      [
        "Ġhid",
        "ing"
      ],
      [
        "Ġc",
        "our"
      ],
      [
        "ĠThe",
        "ir"
      ],
      [
        "ĠWh",
        "iskers"
      ],
      [
        "Ġpar",
        "t"
      ],
      [
        "is",
        "a"
      ],
      [
        "er",
        "ry"
      ],
      [
        "Ġto",
        "uc"
      ],
      [
        "Ġm",
        "in"
      ],
      [
        "Ġpu",
        "ppy"
      ],
      [
        "'",
        "ll"
      ],
      [
        "Ġsee",
        "m"
      ],
      [
        "ll",
        "ie"
      ],
      [
        "Ġtw",
        "ins"
      ],
      [
        "am",
        "a"
      ],
      [
        "Ġl",
        "unch"
      ],
      [
        "Ġb",
        "ow"
      ],
      [
        "Ġsa",
        "ck"
      ],
      [
        "ĠRe",
        "my"
      ],
      [
        "Ġp",
        "ers"
      ],
      [
        "T",
        "om"
      ],
      [
        "Ġcour",
        "se"
      ],
      [
        "Ġche",
        "ered"
      ],
      [
        "Ġshap",
        "es"
      ],
      [
        "Ġgre",
        "w"
      ],
      [
        "ĠB",
        "ella"
      ],
      [
        "f",
        "used"
      ],
      [
        "Ġro",
        "pe"
      ],
      [
        "Ġvill",
        "age"
      ],
      [
        "irt",
        "h"
      ],
      [
        "irth",
        "day"
      ],
      [
        "Ġju",
        "ice"
      ],
      [
        "i",
        "pped"
      ],
      [
        "Ġrain",
        "bow"
      ],
      [
        "ĠL",
        "isa"
      ],
      [
        "Ġsp",
        "in"
      ],
      [
        "O",
        "K"
      ],
      [
        "ĠM",
        "ark"
      ],
      [
        "Ġsh",
        "ook"
      ],
      [
        "Ġsp",
        "oon"
      ],
      [
        "Ġben",
        "ch"
      ],
      [
        "Ġstre",
        "et"
      ],
      [
        "Ġf",
        "ence"
      ],
      [
        "Ġcut",
        "e"
      ],
      [
        "ĠL",
        "e"
      ],
      [
        "Ġro",
        "b"
      ],
      [
        "Ġn",
        "ut"
      ],
      [
        "Ġchee",
        "se"
      ],
      [
        "Ġpr",
        "ob"
      ],
      [
        "Ġtouc",
        "hed"
      ],
      [
        "id",
        "ge"
      ],
      [
        "co",
        "l"
      ],
      [
        "Ġj",
        "oy"
      ],
      [
        "ĠJ",
        "ill"
      ],
      [
        "Ġarri",
        "ved"
      ],
      [
        "Ġse",
        "ed"
      ],
      [
        "Ġwa",
        "r"
      ],
      [
        "Ġteac",
        "her"
      ],
      [
        "Ġc",
        "orn"
      ],
      [
        "G",
        "ood"
      ],
      [
        "Ġfore",
        "ver"
      ],
      [
        "Ġab",
        "le"
      ],
      [
        "Ġbe",
        "ll"
      ],
      [
        "Ġfe",
        "w"
      ],
      [
        "Ġcar",
        "ry"
      ],
      [
        "ĠGra",
        "ndma"
      ],
      [
        "Ġmo",
        "st"
      ],
      [
        "Ġpl",
        "ane"
      ],
      [
        "le",
        "m"
      ],
      [
        "Ġe",
        "as"
      ],
      [
        "Ġsound",
        "s"
      ],
      [
        "ll",
        "a"
      ],
      [
        "Ġd",
        "es"
      ],
      [
        "Ġsp",
        "o"
      ],
      [
        "Ġprob",
        "lem"
      ],
      [
        "Ġb",
        "irthday"
      ],
      [
        "Ġp",
        "ower"
      ],
      [
        "Ġin",
        "c"
      ],
      [
        "um",
        "b"
      ],
      [
        "b",
        "r"
      ],
      [
        "Ġbug",
        "s"
      ],
      [
        "il",
        "k"
      ],
      [
        "Ġwonder",
        "ful"
      ],
      [
        "ĠTh",
        "ank"
      ],
      [
        "Ġdoll",
        "s"
      ],
      [
        "Ġbus",
        "y"
      ],
      [
        "at",
        "o"
      ],
      [
        "ir",
        "p"
      ],
      [
        "Ġw",
        "ra"
      ],
      [
        "Ġprom",
        "ise"
      ],
      [
        "Ġfeel",
        "s"
      ],
      [
        "i",
        "an"
      ],
      [
        "et",
        "er"
      ],
      [
        "Ġbre",
        "ad"
      ],
      [
        "o",
        "st"
      ],
      [
        "Ġne",
        "ck"
      ],
      [
        "Ġm",
        "ilk"
      ],
      [
        "Ġrob",
        "ot"
      ],
      [
        "Ġre",
        "c"
      ],
      [
        "Ġsh",
        "y"
      ],
      [
        "ount",
        "ain"
      ],
      [
        "Ġk",
        "iss"
      ],
      [
        "Ġb",
        "and"
      ],
      [
        "Ġc",
        "ave"
      ],
      [
        "Ġpo",
        "cket"
      ],
      [
        "e",
        "b"
      ],
      [
        "u",
        "b"
      ],
      [
        "Ġhelp",
        "ful"
      ],
      [
        "g",
        "ly"
      ],
      [
        "Ġslow",
        "ly"
      ],
      [
        "Ġbelie",
        "ve"
      ],
      [
        "Ġsh",
        "ake"
      ],
      [
        "ump",
        "y"
      ],
      [
        "e",
        "ared"
      ],
      [
        "Ġpat",
        "ient"
      ],
      [
        "Ġp",
        "op"
      ],
      [
        "Ġo",
        "b"
      ],
      [
        "ar",
        "p"
      ],
      [
        "Ġli",
        "ve"
      ],
      [
        "Ġstor",
        "m"
      ],
      [
        "ĠFr",
        "ed"
      ],
      [
        "Ġhold",
        "ing"
      ],
      [
        "Ġu",
        "gly"
      ],
      [
        "Ġtow",
        "ards"
      ],
      [
        "Ġup",
        "set"
      ],
      [
        "Ġt",
        "urt"
      ],
      [
        "Ġsh",
        "r"
      ],
      [
        "ad",
        "ow"
      ],
      [
        "Ġco",
        "ver"
      ],
      [
        "Ġk",
        "itten"
      ],
      [
        "Ġsh",
        "arp"
      ],
      [
        "Ġdis",
        "app"
      ],
      [
        "Ġstor",
        "ies"
      ],
      [
        "Ġs",
        "uc"
      ],
      [
        "Ġh",
        "oney"
      ],
      [
        "o",
        "ve"
      ],
      [
        "re",
        "ad"
      ],
      [
        "Ġno",
        "ises"
      ],
      [
        "Ġc",
        "ir"
      ],
      [
        "Ġball",
        "s"
      ],
      [
        "ĠL",
        "ater"
      ],
      [
        "Ġsp",
        "ark"
      ],
      [
        "Ġgr",
        "ay"
      ],
      [
        "Ġd",
        "ist"
      ],
      [
        "Ġd",
        "irt"
      ],
      [
        "og",
        "gy"
      ],
      [
        "Ġl",
        "ate"
      ],
      [
        "Ġdri",
        "ver"
      ],
      [
        "Ġse",
        "at"
      ],
      [
        "Ġbuck",
        "et"
      ],
      [
        "Ġme",
        "et"
      ],
      [
        "Ġyou",
        "ng"
      ],
      [
        "Ġamaz",
        "ed"
      ],
      [
        "Ġturt",
        "le"
      ],
      [
        "al",
        "m"
      ],
      [
        "Ġsp",
        "id"
      ],
      [
        "Ġtreat",
        "s"
      ],
      [
        "ĠB",
        "e"
      ],
      [
        "Ġmagic",
        "al"
      ],
      [
        "u",
        "nt"
      ],
      [
        "at",
        "or"
      ],
      [
        "Ġgl",
        "ow"
      ],
      [
        "Ġsee",
        "k"
      ],
      [
        "Ġz",
        "oom"
      ],
      [
        "Ġle",
        "m"
      ],
      [
        "Ġsand",
        "w"
      ],
      [
        "fort",
        "able"
      ],
      [
        "um",
        "ber"
      ],
      [
        "Ġtri",
        "p"
      ],
      [
        "Ġm",
        "ist"
      ],
      [
        "Ġspl",
        "as"
      ],
      [
        "ĠLe",
        "o"
      ],
      [
        "our",
        "n"
      ],
      [
        "Ġm",
        "ark"
      ],
      [
        "Ġj",
        "ourn"
      ],
      [
        "Ġfo",
        "ld"
      ],
      [
        "Ġm",
        "ach"
      ],
      [
        "Ġpu",
        "zz"
      ],
      [
        "l",
        "ing"
      ],
      [
        "Ġhor",
        "se"
      ],
      [
        "Ġor",
        "gan"
      ],
      [
        "Ġw",
        "ild"
      ],
      [
        "Ġprin",
        "cess"
      ],
      [
        "pp",
        "ing"
      ],
      [
        "oo",
        "se"
      ],
      [
        "Ġcook",
        "ie"
      ],
      [
        "en",
        "s"
      ],
      [
        "Ġhug",
        "s"
      ],
      [
        "L",
        "ily"
      ],
      [
        "Ġt",
        "aking"
      ],
      [
        "un",
        "g"
      ],
      [
        "Ġwhe",
        "el"
      ],
      [
        "ep",
        "end"
      ],
      [
        "Ġcl",
        "oth"
      ],
      [
        "Ġs",
        "ug"
      ],
      [
        "Ġin",
        "stead"
      ],
      [
        "Ġbu",
        "bb"
      ],
      [
        "Ġstr",
        "ing"
      ],
      [
        "Ġn",
        "et"
      ],
      [
        "Ġdro",
        "ve"
      ],
      [
        "il",
        "ing"
      ],
      [
        "Ġru",
        "de"
      ],
      [
        "Ġhug",
        "e"
      ],
      [
        "Ġco",
        "in"
      ],
      [
        "Ġstar",
        "s"
      ],
      [
        "Ġfight",
        "ing"
      ],
      [
        "Ġsp",
        "icy"
      ],
      [
        "Ġl",
        "ucky"
      ],
      [
        "S",
        "ure"
      ],
      [
        "O",
        "f"
      ],
      [
        "Ġcra",
        "w"
      ],
      [
        "H",
        "ey"
      ],
      [
        "Ġb",
        "one"
      ],
      [
        "Ġin",
        "v"
      ],
      [
        "or",
        "s"
      ],
      [
        "n",
        "ot"
      ],
      [
        "ĠM",
        "ary"
      ],
      [
        "Ġc",
        "a"
      ],
      [
        "pp",
        "er"
      ],
      [
        "Ġfor",
        "get"
      ],
      [
        "u",
        "p"
      ],
      [
        "Ġd",
        "i"
      ],
      [
        "a",
        "ur"
      ],
      [
        "Ġsa",
        "l"
      ],
      [
        "er",
        "t"
      ],
      [
        "Ġcan",
        "not"
      ],
      [
        "Ġwhist",
        "le"
      ],
      [
        "Ġc",
        "ard"
      ],
      [
        "Ġs",
        "ick"
      ],
      [
        "Ġp",
        "ath"
      ],
      [
        "Ġc",
        "ou"
      ],
      [
        "Ġspid",
        "er"
      ],
      [
        "Ġw",
        "ide"
      ],
      [
        "ĠM",
        "ama"
      ],
      [
        "Ġfo",
        "ot"
      ],
      [
        "Ġsnow",
        "man"
      ],
      [
        "Ġli",
        "fe"
      ],
      [
        "Ġsong",
        "s"
      ],
      [
        "Ġpill",
        "ow"
      ],
      [
        "iz",
        "e"
      ],
      [
        "ĠB",
        "u"
      ],
      [
        "Ġfix",
        "ed"
      ],
      [
        "ĠC",
        "at"
      ],
      [
        "e",
        "st"
      ],
      [
        "Ġgi",
        "ant"
      ],
      [
        "ri",
        "ll"
      ],
      [
        "Ġcar",
        "t"
      ],
      [
        "ĠW",
        "ith"
      ],
      [
        "Ġno",
        "d"
      ],
      [
        "Ġbo",
        "ss"
      ],
      [
        "ul",
        "ar"
      ],
      [
        "Ġla",
        "st"
      ],
      [
        "Ġcom",
        "es"
      ],
      [
        "Ġjo",
        "ke"
      ],
      [
        "ĠL",
        "una"
      ],
      [
        "Ġmo",
        "on"
      ],
      [
        "Ġtast",
        "e"
      ],
      [
        "d",
        "en"
      ],
      [
        "Ġmach",
        "ine"
      ],
      [
        "Ġgr",
        "umpy"
      ],
      [
        "ĠDad",
        "dy"
      ],
      [
        "Ġwa",
        "ve"
      ],
      [
        "Ġth",
        "in"
      ],
      [
        "Ġdri",
        "ve"
      ],
      [
        "Ġas",
        "h"
      ],
      [
        "Ġs",
        "er"
      ],
      [
        "Ġgra",
        "b"
      ],
      [
        "Ġpe",
        "ace"
      ],
      [
        "Ġdad",
        "dy"
      ],
      [
        "er",
        "y"
      ],
      [
        "Ġs",
        "el"
      ],
      [
        "Ġshe",
        "lf"
      ],
      [
        "Ġhid",
        "den"
      ],
      [
        "ere",
        "st"
      ],
      [
        "Ġs",
        "uddenly"
      ],
      [
        "Ġwas",
        "n"
      ],
      [
        "Ġwr",
        "ite"
      ],
      [
        "Ġland",
        "ed"
      ],
      [
        "Ġcon",
        "fused"
      ],
      [
        "l",
        "ower"
      ],
      [
        "Ġr",
        "ing"
      ],
      [
        "Ġch",
        "ange"
      ],
      [
        "Ġwor",
        "m"
      ],
      [
        "oo",
        "p"
      ],
      [
        "Ġint",
        "erest"
      ],
      [
        "Ġch",
        "ased"
      ],
      [
        "Ġfruit",
        "s"
      ],
      [
        "Ġs",
        "our"
      ],
      [
        "it",
        "y"
      ],
      [
        "Ġmy",
        "ster"
      ],
      [
        "Ġb",
        "ark"
      ],
      [
        "Ġr",
        "ad"
      ],
      [
        "Ġsmo",
        "oth"
      ],
      [
        "ĠC",
        "ome"
      ],
      [
        "Ġadventure",
        "s"
      ],
      [
        "Ġv",
        "al"
      ],
      [
        "Ġste",
        "pped"
      ],
      [
        "Ġf",
        "le"
      ],
      [
        "op",
        "e"
      ],
      [
        "Ġo",
        "ven"
      ],
      [
        "ĠCh",
        "irp"
      ],
      [
        "Ġtake",
        "s"
      ],
      [
        "Ġmiss",
        "ed"
      ],
      [
        "le",
        "t"
      ],
      [
        "Ġsel",
        "fish"
      ],
      [
        "k",
        "in"
      ],
      [
        "Ġshe",
        "ep"
      ],
      [
        "Ġmess",
        "y"
      ],
      [
        "Ġac",
        "ross"
      ],
      [
        "Ġ",
        "ent"
      ],
      [
        "Ġex",
        "p"
      ],
      [
        "t",
        "o"
      ],
      [
        "Ġc",
        "e"
      ],
      [
        "Ġl",
        "ater"
      ],
      [
        "ell",
        "y"
      ],
      [
        "if",
        "e"
      ],
      [
        "e",
        "ver"
      ],
      [
        "Ġstick",
        "s"
      ],
      [
        "Ġt",
        "ie"
      ],
      [
        "pec",
        "t"
      ],
      [
        "Ġb",
        "ought"
      ],
      [
        "Ġst",
        "ep"
      ],
      [
        "Ġd",
        "rew"
      ],
      [
        "Ġb",
        "an"
      ],
      [
        "bo",
        "x"
      ],
      [
        "?",
        "âĢĿ"
      ],
      [
        "Ġwas",
        "h"
      ],
      [
        "Ġl",
        "ay"
      ],
      [
        "Ġp",
        "our"
      ],
      [
        "o",
        "se"
      ],
      [
        "Ġbe",
        "ak"
      ],
      [
        "Ġj",
        "og"
      ],
      [
        "Ġgr",
        "ate"
      ],
      [
        "ĠMom",
        "o"
      ],
      [
        "Ġduck",
        "s"
      ],
      [
        "Ġsp",
        "e"
      ],
      [
        "Ġleg",
        "s"
      ],
      [
        "ug",
        "g"
      ],
      [
        "Ġf",
        "il"
      ],
      [
        "Ġem",
        "p"
      ],
      [
        "m",
        "er"
      ],
      [
        "Ġhop",
        "e"
      ],
      [
        "Ġte",
        "a"
      ],
      [
        "Ġemp",
        "ty"
      ],
      [
        "Ġsl",
        "id"
      ],
      [
        "Ġfe",
        "ather"
      ],
      [
        "Ġsh",
        "irt"
      ],
      [
        "Ġsleep",
        "y"
      ],
      [
        "Ġdr",
        "um"
      ],
      [
        "am",
        "ed"
      ],
      [
        "ĠChirp",
        "y"
      ],
      [
        "Ġz",
        "oo"
      ],
      [
        "Ġp",
        "an"
      ],
      [
        "et",
        "h"
      ],
      [
        "Ġph",
        "one"
      ],
      [
        "Ġgrate",
        "ful"
      ],
      [
        "Ġf",
        "ing"
      ],
      [
        "ion",
        "s"
      ],
      [
        "ĠO",
        "llie"
      ],
      [
        "Ġlem",
        "on"
      ],
      [
        "Ġcle",
        "ver"
      ],
      [
        "Ġsmell",
        "y"
      ],
      [
        "Ġim",
        "ag"
      ],
      [
        "Ġinterest",
        "ing"
      ],
      [
        "Ġsa",
        "ve"
      ],
      [
        "Ġch",
        "ick"
      ],
      [
        "Ġc",
        "alm"
      ],
      [
        "Ġspl",
        "ash"
      ],
      [
        "Ġm",
        "ed"
      ],
      [
        "Ġwatch",
        "ing"
      ],
      [
        "iz",
        "zy"
      ],
      [
        "ĠJ",
        "erry"
      ],
      [
        "iz",
        "z"
      ],
      [
        "Ġpl",
        "ate"
      ],
      [
        "Ġ",
        "ign"
      ],
      [
        "ĠB",
        "unny"
      ],
      [
        "y",
        "ard"
      ],
      [
        "Ġcloud",
        "s"
      ],
      [
        "Ġban",
        "an"
      ],
      [
        "Ġl",
        "ine"
      ],
      [
        "Ġface",
        "s"
      ],
      [
        "Ġb",
        "a"
      ],
      [
        "Ġa",
        "ct"
      ],
      [
        "Ġth",
        "ough"
      ],
      [
        "Ġwo",
        "lf"
      ],
      [
        "Ġback",
        "yard"
      ],
      [
        "w",
        "el"
      ],
      [
        "Ġseem",
        "ed"
      ],
      [
        "Ġdog",
        "s"
      ],
      [
        "ĠJim",
        "my"
      ],
      [
        "Ġspr",
        "ay"
      ],
      [
        "ĠD",
        "oggy"
      ],
      [
        "C",
        "ome"
      ],
      [
        "Ġpr",
        "ot"
      ],
      [
        "Ġwho",
        "le"
      ],
      [
        "Ġm",
        "ot"
      ],
      [
        "Ġfan",
        "cy"
      ],
      [
        "Ġque",
        "st"
      ],
      [
        "Ġarm",
        "s"
      ],
      [
        "Ġpuzz",
        "le"
      ],
      [
        "Ġhe",
        "althy"
      ],
      [
        "Ġsu",
        "pp"
      ],
      [
        "w",
        "ard"
      ],
      [
        "Ġfin",
        "ish"
      ],
      [
        "er",
        "ly"
      ],
      [
        "Ġal",
        "ong"
      ],
      [
        "ll",
        "o"
      ],
      [
        "Ġrock",
        "et"
      ],
      [
        "Ġexpl",
        "ain"
      ],
      [
        "ul",
        "t"
      ],
      [
        "d",
        "ge"
      ],
      [
        "Ġeas",
        "y"
      ],
      [
        "on",
        "t"
      ],
      [
        "Ġje",
        "wel"
      ],
      [
        "Ġp",
        "ract"
      ],
      [
        "Ġj",
        "elly"
      ],
      [
        "Ġt",
        "id"
      ],
      [
        "Ġf",
        "ake"
      ],
      [
        "Ġcray",
        "ons"
      ],
      [
        "Ġwonder",
        "ed"
      ],
      [
        "Ġm",
        "aybe"
      ],
      [
        "Ġsc",
        "ar"
      ],
      [
        "Ġsh",
        "ip"
      ],
      [
        "Ġnot",
        "hing"
      ],
      [
        "one",
        "st"
      ],
      [
        "Ġem",
        "b"
      ],
      [
        "ig",
        "er"
      ],
      [
        "Ġp",
        "ool"
      ],
      [
        "Ġlong",
        "er"
      ],
      [
        "ĠS",
        "t"
      ],
      [
        "Ġany",
        "one"
      ],
      [
        "u",
        "ally"
      ],
      [
        "Ġfr",
        "ont"
      ],
      [
        "Ġwor",
        "king"
      ],
      [
        "Ġgive",
        "s"
      ],
      [
        "ir",
        "r"
      ],
      [
        "Ġp",
        "ack"
      ],
      [
        "Ġs",
        "uch"
      ],
      [
        "o",
        "cked"
      ],
      [
        "m",
        "ent"
      ],
      [
        "Ġboss",
        "y"
      ],
      [
        "Ġtrou",
        "ble"
      ],
      [
        "Ġsmell",
        "ed"
      ],
      [
        "Ġsa",
        "ved"
      ],
      [
        "Ġp",
        "in"
      ],
      [
        "ra",
        "ss"
      ],
      [
        "Ġne",
        "igh"
      ],
      [
        "S",
        "t"
      ],
      [
        "ar",
        "rass"
      ],
      [
        "it",
        "ing"
      ],
      [
        "Ġh",
        "onest"
      ],
      [
        "Ġa",
        "v"
      ],
      [
        "ar",
        "ge"
      ],
      [
        "Ġemb",
        "arrass"
      ],
      [
        "Ġli",
        "ft"
      ],
      [
        "Ġv",
        "an"
      ],
      [
        "Ġforg",
        "ive"
      ],
      [
        "Ġtid",
        "y"
      ],
      [
        "Ġwe",
        "ak"
      ],
      [
        "ur",
        "se"
      ],
      [
        "Ġput",
        "s"
      ],
      [
        "un",
        "k"
      ],
      [
        "Ġk",
        "ick"
      ],
      [
        "ĠM",
        "um"
      ],
      [
        "Ġm",
        "ind"
      ],
      [
        "Ġneigh",
        "b"
      ],
      [
        "Ġplant",
        "s"
      ],
      [
        "ĠBob",
        "by"
      ],
      [
        "Ġso",
        "l"
      ],
      [
        "Ġgent",
        "ly"
      ],
      [
        "Ġco",
        "zy"
      ],
      [
        "or",
        "row"
      ],
      [
        "Ġprin",
        "t"
      ],
      [
        "m",
        "ing"
      ],
      [
        "Ġexpl",
        "or"
      ],
      [
        "s",
        "p"
      ],
      [
        "Ġmist",
        "ake"
      ],
      [
        "Ġy",
        "og"
      ],
      [
        "o",
        "c"
      ],
      [
        "oom",
        "y"
      ],
      [
        "Ġpoin",
        "ted"
      ],
      [
        "Ġl",
        "ad"
      ],
      [
        "Ġa",
        "f"
      ],
      [
        "Ġst",
        "ood"
      ],
      [
        "or",
        "k"
      ],
      [
        "Ġon",
        "to"
      ],
      [
        "Ġjump",
        "ing"
      ],
      [
        "Ġwait",
        "ing"
      ],
      [
        "Ġprin",
        "ce"
      ],
      [
        "Ġc",
        "ross"
      ],
      [
        "Ġlo",
        "ck"
      ],
      [
        "Ġche",
        "er"
      ],
      [
        "Ġque",
        "en"
      ],
      [
        "ĠW",
        "hy"
      ],
      [
        "Ġw",
        "ing"
      ],
      [
        "on",
        "es"
      ],
      [
        "w",
        "e"
      ],
      [
        "Ġl",
        "arge"
      ],
      [
        "Ġlove",
        "ly"
      ],
      [
        "Ġs",
        "ur"
      ],
      [
        "Ġre",
        "t"
      ],
      [
        "Ġde",
        "er"
      ],
      [
        "Ġche",
        "w"
      ],
      [
        "Ġcou",
        "ch"
      ],
      [
        "Ġb",
        "al"
      ],
      [
        "ĠM",
        "y"
      ],
      [
        "Ġst",
        "ret"
      ],
      [
        "aught",
        "er"
      ],
      [
        "er",
        "a"
      ],
      [
        "Ġplace",
        "s"
      ],
      [
        "B",
        "e"
      ],
      [
        "Ġlad",
        "der"
      ],
      [
        "Ġret",
        "urn"
      ],
      [
        "ra",
        "id"
      ],
      [
        "ĠS",
        "omet"
      ],
      [
        "Ġe",
        "ar"
      ],
      [
        "Ġant",
        "s"
      ],
      [
        "Ġd",
        "ish"
      ],
      [
        "Ġaf",
        "raid"
      ],
      [
        "Ġclean",
        "ed"
      ],
      [
        "Ġtom",
        "orrow"
      ],
      [
        "Ġbuild",
        "ing"
      ],
      [
        "Ġsandw",
        "ich"
      ],
      [
        "Ġpers",
        "on"
      ],
      [
        "e",
        "k"
      ],
      [
        "n",
        "ed"
      ],
      [
        "Ġpretend",
        "ed"
      ],
      [
        "Ġboun",
        "ce"
      ],
      [
        "Ġw",
        "ip"
      ],
      [
        "ge",
        "st"
      ],
      [
        "Ġmat",
        "ch"
      ],
      [
        "Ġri",
        "ch"
      ],
      [
        "u",
        "ce"
      ],
      [
        "Ġp",
        "izz"
      ],
      [
        "Ġg",
        "ather"
      ],
      [
        "Ġsear",
        "ch"
      ],
      [
        "Ġbor",
        "ing"
      ],
      [
        "ĠT",
        "iny"
      ],
      [
        "om",
        "an"
      ],
      [
        "Ġte",
        "eth"
      ],
      [
        "Ġh",
        "um"
      ],
      [
        "ac",
        "ed"
      ],
      [
        "Ġd",
        "aughter"
      ],
      [
        "Ġw",
        "oman"
      ],
      [
        "Ġscar",
        "f"
      ],
      [
        "Ġgo",
        "es"
      ],
      [
        "Ġla",
        "w"
      ],
      [
        "M",
        "y"
      ],
      [
        "Ġst",
        "ra"
      ],
      [
        "Ġswim",
        "ming"
      ],
      [
        "Ġfur",
        "ry"
      ],
      [
        "Ġsplas",
        "hed"
      ],
      [
        "ĠA",
        "l"
      ],
      [
        "Ġp",
        "ri"
      ],
      [
        "Ġlove",
        "s"
      ],
      [
        "Ġtr",
        "ue"
      ],
      [
        "ĠB",
        "ird"
      ],
      [
        "Ġscream",
        "ed"
      ],
      [
        "Ġla",
        "zy"
      ],
      [
        "Ġg",
        "en"
      ],
      [
        "Ġansw",
        "er"
      ],
      [
        "Ġn",
        "umber"
      ],
      [
        "Ġe",
        "ag"
      ],
      [
        "Ġash",
        "amed"
      ],
      [
        "Ġpizz",
        "a"
      ],
      [
        "a",
        "w"
      ],
      [
        "Ġapp",
        "eared"
      ],
      [
        "Ġfe",
        "ar"
      ],
      [
        "Ġnear",
        "by"
      ],
      [
        "Ġpower",
        "ful"
      ],
      [
        "Ġfl",
        "ag"
      ],
      [
        "Ġha",
        "ng"
      ],
      [
        "v",
        "ous"
      ],
      [
        "Ġcl",
        "own"
      ],
      [
        "Ġch",
        "ase"
      ],
      [
        "Ġmot",
        "or"
      ],
      [
        "Ġwa",
        "nd"
      ],
      [
        "ĠBen",
        "ny"
      ],
      [
        "ĠT",
        "V"
      ],
      [
        "Ġru",
        "b"
      ],
      [
        "Ġsuc",
        "cess"
      ],
      [
        "Ġcho",
        "col"
      ],
      [
        "ĠI",
        "f"
      ],
      [
        "Ġcreat",
        "ive"
      ],
      [
        "Ġtr",
        "ust"
      ],
      [
        "Ġwe",
        "aring"
      ],
      [
        "Ġno",
        "isy"
      ],
      [
        "Ġmat",
        "ter"
      ],
      [
        "p",
        "a"
      ],
      [
        "Ġd",
        "ig"
      ],
      [
        "ĠD",
        "ucky"
      ],
      [
        "Ġhe",
        "llo"
      ],
      [
        "Ġn",
        "er"
      ],
      [
        "Ġtoo",
        "l"
      ],
      [
        "Ġsa",
        "f"
      ],
      [
        "ad",
        "o"
      ],
      [
        "Ġner",
        "vous"
      ],
      [
        "el",
        "p"
      ],
      [
        "Ġte",
        "st"
      ],
      [
        "Ġsm",
        "iling"
      ],
      [
        "Ġso",
        "ld"
      ],
      [
        "ic",
        "ked"
      ],
      [
        "o",
        "ppy"
      ],
      [
        "os",
        "aur"
      ],
      [
        "Ġcir",
        "cle"
      ],
      [
        "m",
        "b"
      ],
      [
        "N",
        "ow"
      ],
      [
        "ĠH",
        "ow"
      ],
      [
        "Ġm",
        "ap"
      ],
      [
        "Ġdr",
        "ank"
      ],
      [
        "Ġcla",
        "ss"
      ],
      [
        "Ġtri",
        "es"
      ],
      [
        "Ġchocol",
        "ate"
      ],
      [
        "ĠP",
        "lease"
      ],
      [
        "Ġimp",
        "ress"
      ],
      [
        "Ġkne",
        "e"
      ],
      [
        "Ġgen",
        "er"
      ],
      [
        "Ġdin",
        "osaur"
      ],
      [
        "Ġpol",
        "ite"
      ],
      [
        "Ġm",
        "irr"
      ],
      [
        "ĠG",
        "o"
      ],
      [
        "Ġballoon",
        "s"
      ],
      [
        "Ġgo",
        "ld"
      ],
      [
        "Ġr",
        "are"
      ],
      [
        "Ġprot",
        "ect"
      ],
      [
        "Ġc",
        "and"
      ],
      [
        "St",
        "op"
      ],
      [
        "ĠD",
        "on"
      ],
      [
        "Ġcar",
        "ried"
      ],
      [
        "ens",
        "ive"
      ],
      [
        "Ġa",
        "p"
      ],
      [
        "Ġsh",
        "adow"
      ],
      [
        "Ġmirr",
        "or"
      ],
      [
        "Ġba",
        "ld"
      ],
      [
        "Ġg",
        "un"
      ],
      [
        "in",
        "a"
      ],
      [
        "Ġexp",
        "ensive"
      ],
      [
        "Ġre",
        "g"
      ],
      [
        "if",
        "f"
      ],
      [
        "Ġmyster",
        "ious"
      ],
      [
        "Ġp",
        "ump"
      ],
      [
        "Ġnot",
        "e"
      ],
      [
        "Ġher",
        "o"
      ],
      [
        "Ġ",
        "U"
      ],
      [
        "Ġmar",
        "ch"
      ],
      [
        "Ġres",
        "pect"
      ],
      [
        "Ġh",
        "ar"
      ],
      [
        "ar",
        "l"
      ],
      [
        "Ġ",
        "icy"
      ],
      [
        "Ġwe",
        "ird"
      ],
      [
        "ĠB",
        "ear"
      ],
      [
        "Ġsn",
        "ee"
      ],
      [
        "Ġc",
        "ri"
      ],
      [
        "Ġg",
        "ate"
      ],
      [
        "Ġso",
        "ap"
      ],
      [
        "ra",
        "g"
      ],
      [
        "ut",
        "e"
      ],
      [
        "iss",
        "ors"
      ],
      [
        "Ġthe",
        "se"
      ],
      [
        "Ġpo",
        "or"
      ],
      [
        "Ġtow",
        "el"
      ],
      [
        "Ġwh",
        "ale"
      ],
      [
        "Ġfe",
        "et"
      ],
      [
        "Ġt",
        "ape"
      ],
      [
        "Ġd",
        "izzy"
      ],
      [
        "itt",
        "er"
      ],
      [
        "Ġgener",
        "ous"
      ],
      [
        "nd",
        "pa"
      ],
      [
        "Ġpre",
        "s"
      ],
      [
        "n",
        "ic"
      ],
      [
        "Ġdis",
        "co"
      ],
      [
        "H",
        "elp"
      ],
      [
        "vent",
        "ually"
      ],
      [
        "Ġpic",
        "nic"
      ],
      [
        "Ġm",
        "ic"
      ],
      [
        "Ġle",
        "ad"
      ],
      [
        "Ġs",
        "que"
      ],
      [
        "ĠSomet",
        "imes"
      ],
      [
        "Ġembarrass",
        "ed"
      ],
      [
        "Ġjourn",
        "ey"
      ],
      [
        "is",
        "p"
      ],
      [
        "Ġsug",
        "ar"
      ],
      [
        "sc",
        "ape"
      ],
      [
        "Ġbo",
        "ot"
      ],
      [
        "Ġt",
        "ent"
      ],
      [
        "Ġpeace",
        "ful"
      ],
      [
        "Ġf",
        "at"
      ],
      [
        "Ġsc",
        "issors"
      ],
      [
        "Ġtast",
        "ed"
      ],
      [
        "Ġyell",
        "ed"
      ],
      [
        "Ġt",
        "ick"
      ],
      [
        "Ġm",
        "el"
      ],
      [
        "Ġbr",
        "ush"
      ],
      [
        "ĠE",
        "lla"
      ],
      [
        "Ġdanc",
        "ing"
      ],
      [
        "n",
        "ess"
      ],
      [
        "Ġgl",
        "ue"
      ],
      [
        "Ġh",
        "ur"
      ],
      [
        "Ġr",
        "ough"
      ],
      [
        "Ġcl",
        "ap"
      ],
      [
        "Ġbr",
        "idge"
      ],
      [
        "ot",
        "e"
      ],
      [
        "Ġdec",
        "or"
      ],
      [
        "Ġclos",
        "et"
      ],
      [
        "Ġcr",
        "own"
      ],
      [
        "Ġst",
        "ir"
      ],
      [
        "ĠAnd",
        "y"
      ],
      [
        "u",
        "al"
      ],
      [
        "im",
        "p"
      ],
      [
        "ow",
        "ed"
      ],
      [
        "air",
        "s"
      ],
      [
        "um",
        "e"
      ],
      [
        "Ġc",
        "ap"
      ],
      [
        "Ġl",
        "amp"
      ],
      [
        "Ġv",
        "ase"
      ],
      [
        "Ġsc",
        "are"
      ],
      [
        "le",
        "br"
      ],
      [
        "Ġrel",
        "ie"
      ],
      [
        "l",
        "ves"
      ],
      [
        "an",
        "y"
      ],
      [
        "Ġe",
        "ld"
      ],
      [
        "Ġte",
        "le"
      ],
      [
        "Ġce",
        "lebr"
      ],
      [
        "Ġg",
        "igg"
      ],
      [
        "Ġwh",
        "isp"
      ],
      [
        "Ġlo",
        "g"
      ],
      [
        "Ġbl",
        "ow"
      ],
      [
        "Ġpain",
        "ted"
      ],
      [
        "Ġsc",
        "o"
      ],
      [
        "Ġp",
        "ay"
      ],
      [
        "er",
        "ries"
      ],
      [
        "Ġw",
        "is"
      ],
      [
        "Ġb",
        "erries"
      ],
      [
        "Ġmix",
        "ed"
      ],
      [
        "Ġsp",
        "read"
      ],
      [
        "Ġwould",
        "n"
      ],
      [
        "Ġc",
        "age"
      ],
      [
        "Ġb",
        "ake"
      ],
      [
        "r",
        "ob"
      ],
      [
        "get",
        "able"
      ],
      [
        "Ġm",
        "ountain"
      ],
      [
        "Ġad",
        "m"
      ],
      [
        "Ġdraw",
        "ing"
      ],
      [
        "Ġbec",
        "ome"
      ],
      [
        "ĠB",
        "r"
      ],
      [
        "Ġfam",
        "ous"
      ],
      [
        "Ġbe",
        "an"
      ],
      [
        "Ġkn",
        "ocked"
      ],
      [
        "Ġn",
        "orm"
      ],
      [
        "Ġve",
        "getable"
      ],
      [
        "as",
        "p"
      ],
      [
        "Ġk",
        "icked"
      ],
      [
        "ust",
        "r"
      ],
      [
        "Ġsh",
        "ark"
      ],
      [
        "s",
        "er"
      ],
      [
        "Ġinc",
        "red"
      ],
      [
        "Ġlo",
        "se"
      ],
      [
        "Ġnorm",
        "al"
      ],
      [
        "Ġwra",
        "p"
      ],
      [
        "ĠS",
        "ome"
      ],
      [
        "c",
        "ed"
      ],
      [
        "Ġgr",
        "oup"
      ],
      [
        "Ġth",
        "ick"
      ],
      [
        "Ġ",
        "3"
      ],
      [
        "Ġf",
        "ine"
      ],
      [
        "Ġgl",
        "ass"
      ],
      [
        "Ġign",
        "or"
      ],
      [
        "op",
        "h"
      ],
      [
        "Ġclo",
        "ck"
      ],
      [
        "Ġte",
        "am"
      ],
      [
        "ĠJen",
        "ny"
      ],
      [
        "ĠP",
        "e"
      ],
      [
        "Ġeld",
        "erly"
      ],
      [
        "Ġcle",
        "ar"
      ],
      [
        "Ġcorn",
        "er"
      ],
      [
        "M",
        "ax"
      ],
      [
        "Ġfr",
        "ustr"
      ],
      [
        "Ġmight",
        "y"
      ],
      [
        "rob",
        "e"
      ],
      [
        "Ġc",
        "one"
      ],
      [
        "Ġincred",
        "ible"
      ],
      [
        "ig",
        "hed"
      ],
      [
        "Ġmom",
        "s"
      ],
      [
        "Ġbal",
        "ance"
      ],
      [
        "Ġso",
        "ck"
      ],
      [
        "Ġsp",
        "ace"
      ],
      [
        "Ġj",
        "am"
      ],
      [
        "rag",
        "ile"
      ],
      [
        "Ġfr",
        "ight"
      ],
      [
        "Ġbran",
        "ches"
      ],
      [
        "Ġorgan",
        "ized"
      ],
      [
        "Ġro",
        "ar"
      ],
      [
        "p",
        "ort"
      ],
      [
        "Ġsw",
        "ord"
      ],
      [
        "al",
        "ous"
      ],
      [
        "Ġgu",
        "ess"
      ],
      [
        "Ġf",
        "ool"
      ],
      [
        "Ġse",
        "ll"
      ],
      [
        "Ġfe",
        "ed"
      ],
      [
        "ĠSam",
        "my"
      ],
      [
        "Ġwh",
        "ich"
      ],
      [
        "Ġh",
        "orn"
      ],
      [
        "Mom",
        "my"
      ],
      [
        "Ġpres",
        "ent"
      ],
      [
        "Ġje",
        "alous"
      ],
      [
        "Ġy",
        "arn"
      ],
      [
        "on",
        "y"
      ],
      [
        "Ġf",
        "ragile"
      ],
      [
        "Ġb",
        "urn"
      ],
      [
        "Ġunderst",
        "ood"
      ],
      [
        "Ġm",
        "is"
      ],
      [
        "Ġstu",
        "bb"
      ],
      [
        "Ġt",
        "er"
      ],
      [
        "W",
        "h"
      ],
      [
        "Ġfrustr",
        "ated"
      ],
      [
        "r",
        "ay"
      ],
      [
        "Ġho",
        "se"
      ],
      [
        "c",
        "ient"
      ],
      [
        "W",
        "here"
      ],
      [
        "Ġsp",
        "ent"
      ],
      [
        "Ġsho",
        "e"
      ],
      [
        "Ġt",
        "aught"
      ],
      [
        "Ġstubb",
        "orn"
      ],
      [
        "Ġtw",
        "ist"
      ],
      [
        "Ġcreat",
        "ure"
      ],
      [
        "Ġche",
        "st"
      ],
      [
        "Ġspo",
        "iled"
      ],
      [
        "Ġrelie",
        "ved"
      ],
      [
        "Ġan",
        "cient"
      ],
      [
        "ĠT",
        "r"
      ],
      [
        "i",
        "que"
      ],
      [
        "Ġwa",
        "ke"
      ],
      [
        "Ġfi",
        "er"
      ],
      [
        "Ġpr",
        "ay"
      ],
      [
        "Ġfier",
        "ce"
      ],
      [
        "Ġegg",
        "s"
      ],
      [
        "Ġc",
        "ab"
      ],
      [
        "Ġter",
        "ri"
      ],
      [
        "Ġb",
        "arn"
      ],
      [
        "Ġpump",
        "kin"
      ],
      [
        "Ġcom",
        "fortable"
      ],
      [
        "Ġor",
        "d"
      ],
      [
        "Ġfright",
        "ened"
      ],
      [
        "or",
        "ry"
      ],
      [
        "Ġto",
        "ug"
      ],
      [
        "Ġun",
[...]
